{"version":"1.0","truncation":null,"padding":null,"added_tokens":[{"id":0,"special":true,"content":"<|startoftext|>","single_word":false,"lstrip":false,"rstrip":false,"normalized":false},{"id":1,"special":true,"content":"<|endoftext|>","single_word":false,"lstrip":false,"rstrip":false,"normalized":false}],"normalizer":null,"pre_tokenizer":{"type":"Whitespace"},"post_processor":null,"decoder":null,"model":{"type":"BPE","dropout":null,"unk_token":null,"continuing_subword_prefix":null,"end_of_word_suffix":null,"fuse_unk":false,"vocab":{"<|startoftext|>":0,"<|endoftext|>":1,"!":2,"#":3,"$":4,"%":5,"&":6,"'":7,"(":8,")":9,"*":10,"+":11,",":12,"-":13,".":14,"/":15,"0":16,"1":17,"2":18,"3":19,"4":20,"5":21,"6":22,"7":23,"8":24,"9":25,":":26,";":27,"<":28,"=":29,">":30,"?":31,"@":32,"A":33,"B":34,"C":35,"D":36,"E":37,"F":38,"G":39,"H":40,"I":41,"J":42,"K":43,"L":44,"M":45,"N":46,"O":47,"P":48,"Q":49,"R":50,"S":51,"T":52,"U":53,"V":54,"W":55,"X":56,"Y":57,"Z":58,"\\":59,"^":60,"_":61,"`":62,"a":63,"b":64,"c":65,"d":66,"e":67,"f":68,"g":69,"h":70,"i":71,"j":72,"k":73,"l":74,"m":75,"n":76,"o":77,"p":78,"q":79,"r":80,"s":81,"t":82,"u":83,"v":84,"w":85,"x":86,"y":87,"z":88,"|":89,"~":90,"¡":91,"¢":92,"£":93,"¤":94,"¥":95,"§":96,"©":97,"¬":98,"®":99,"°":100,"±":101,"¶":102,"¿":103,"À":104,"Á":105,"Â":106,"Ä":107,"Å":108,"Æ":109,"Ç":110,"È":111,"É":112,"Ê":113,"Í":114,"Î":115,"Ð":116,"Ñ":117,"Ó":118,"Ô":119,"Ö":120,"×":121,"Ø":122,"Ú":123,"Ü":124,"Þ":125,"ß":126,"à":127,"á":128,"â":129,"ã":130,"ä":131,"å":132,"æ":133,"ç":134,"è":135,"é":136,"ê":137,"ë":138,"ì":139,"í":140,"î":141,"ï":142,"ð":143,"ñ":144,"ò":145,"ó":146,"ô":147,"õ":148,"ö":149,"÷":150,"ø":151,"ù":152,"ú":153,"û":154,"ü":155,"ý":156,"þ":157,"ÿ":158,"Ā":159,"ā":160,"ă":161,"ą":162,"Ć":163,"ć":164,"Č":165,"č":166,"Đ":167,"đ":168,"ē":169,"ė":170,"ę":171,"ě":172,"ğ":173,"ġ":174,"Ħ":175,"ħ":176,"ī":177,"İ":178,"ı":179,"ľ":180,"Ł":181,"ł":182,"ń":183,"ň":184,"Ō":185,"ō":186,"ŏ":187,"ő":188,"œ":189,"ř":190,"Ś":191,"ś":192,"Ş":193,"ş":194,"Š":195,"š":196,"ţ":197,"ť":198,"ũ":199,"ū":200,"ŭ":201,"ů":202,"ŵ":203,"ŷ":204,"ź":205,"Ż":206,"ż":207,"Ž":208,"ž":209,"ƒ":210,"ơ":211,"ư":212,"ǁ":213,"ɑ":214,"ə":215,"̄":216,"̆":217,"̇":218,"̈":219,"̊":220,"̋":221,"̧":222,"Α":223,"Γ":224,"Δ":225,"Ζ":226,"Θ":227,"Ι":228,"Λ":229,"Ξ":230,"Π":231,"Σ":232,"Τ":233,"Φ":234,"Χ":235,"Ψ":236,"Ω":237,"ή":238,"α":239,"β":240,"γ":241,"δ":242,"ε":243,"η":244,"θ":245,"ι":246,"κ":247,"λ":248,"μ":249,"ν":250,"ξ":251,"ο":252,"π":253,"ρ":254,"σ":255,"τ":256,"υ":257,"φ":258,"χ":259,"ω":260,"ό":261,"А":262,"В":263,"Д":264,"Ж":265,"М":266,"П":267,"Р":268,"С":269,"Т":270,"У":271,"Ф":272,"Х":273,"а":274,"б":275,"в":276,"г":277,"д":278,"е":279,"з":280,"и":281,"й":282,"к":283,"л":284,"м":285,"н":286,"о":287,"п":288,"р":289,"с":290,"т":291,"ф":292,"х":293,"ц":294,"ч":295,"ш":296,"ы":297,"э":298,"ю":299,"я":300,"ё":301,"є":302,"א":303,"ב":304,"ג":305,"ד":306,"ו":307,"י":308,"ל":309,"ם":310,"ץ":311,"ר":312,"ש":313,"ת":314,"ا":315,"ت":316,"ج":317,"ح":318,"د":319,"ر":320,"س":321,"ش":322,"ع":323,"ق":324,"ل":325,"م":326,"ن":327,"ه":328,"و":329,"ي":330,"ی":331,"ं":332,"औ":333,"क":334,"म":335,"य":336,"र":337,"व":338,"ह":339,"ी":340,"े":341,"ก":342,"ท":343,"ย":344,"ะ":345,"า":346,"ี":347,"ฺ":348,"฿":349,"เ":350,"่":351,"ᄂ":352,"ḥ":353,"Ṣ":354,"ạ":355,"ả":356,"ấ":357,"ầ":358,"ậ":359,"ằ":360,"ẵ":361,"ế":362,"ề":363,"ễ":364,"ệ":365,"ị":366,"ọ":367,"ố":368,"ồ":369,"ộ":370,"ớ":371,"ờ":372,"ở":373,"ủ":374,"ử":375,"ự":376,"ỳ":377,"Ỷ":378,"ỹ":379,"†":380,"‡":381,"‧":382,"‬":383,"‭":384,"‰":385,"※":386,"⁄":387,"⁠":388,"₤":389,"₩":390,"₪":391,"€":392,"₱":393,"₵":394,"℘":395,"←":396,"↑":397,"→":398,"↓":399,"↔":400,"⇒":401,"⇔":402,"∀":403,"∂":404,"∅":405,"∈":406,"∉":407,"∘":408,"∙":409,"√":410,"∞":411,"∠":412,"∧":413,"∩":414,"∪":415,"∫":416,"∴":417,"≅":418,"≈":419,"≠":420,"≡":421,"≤":422,"≥":423,"⊂":424,"⊃":425,"⊕":426,"⊗":427,"⊙":428,"⊥":429,"⋅":430,"⋆":431,"⎯":432,"─":433,"│":434,"└":435,"█":436,"▲":437,"►":438,"◄":439,"◊":440,"○":441,"◦":442,"☆":443,"☉":444,"☠":445,"☮":446,"♀":447,"♂":448,"♠":449,"♣":450,"♥":451,"♪":452,"♭":453,"♯":454,"々":455,"〖":456,"〗":457,"う":458,"お":459,"か":460,"さ":461,"と":462,"の":463,"は":464,"ん":465,"ガ":466,"ダ":467,"ム":468,"ン":469,"一":470,"上":471,"个":472,"中":473,"之":474,"书":475,"亀":476,"争":477,"二":478,"京":479,"体":480,"八":481,"公":482,"关":483,"兴":484,"兵":485,"北":486,"匡":487,"医":488,"博":489,"卦":490,"印":491,"厂":492,"口":493,"司":494,"吉":495,"味":496,"国":497,"夏":498,"夜":499,"大":500,"天":501,"奥":502,"好":503,"字":504,"寿":505,"小":506,"山":507,"巴":508,"幸":509,"心":510,"情":511,"愛":512,"才":513,"支":514,"文":515,"新":516,"日":517,"易":518,"春":519,"曲":520,"本":521,"東":522,"松":523,"柏":524,"毅":525,"汉":526,"洋":527,"海":528,"港":529,"游":530,"滝":531,"潘":532,"照":533,"爱":534,"父":535,"犬":536,"猫":537,"王":538,"玮":539,"琵":540,"琶":541,"田":542,"的":543,"矢":544,"石":545,"禅":546,"福":547,"秋":548,"程":549,"竜":550,"米":551,"罗":552,"羊":553,"色":554,"花":555,"英":556,"蓝":557,"虎":558,"说":559,"车":560,"道":561,"雄":562,"雨":563,"非":564,"音":565,"香":566,"马":567,"魂":568,"鱼":569,"麒":570,"麟":571,"교":572,"국":573,"대":574,"민":575,"서":576,"울":577,"학":578,"한":579,"":580,"":581,"":582,"":583,"":584,"":585,"":586,"￼":587,"💘":588,"in":589,"he":590,"an":591,"on":592,"er":593,"at":594,"es":595,"or":596,"ar":597,"the":598,"ing":599,"al":600,"st":601,"it":602,"en":603,"re":604,"ou":605,"of":606,"ed":607,"and":608,"ON":609,"ER":610,"PER":611,"SON":612,"PERSON":613,"le":614,"to":615,"ic":616,"is":617,"om":618,"il":619,"ac":620,"ion":621,"as":622,"The":623,"ol":624,"ro":625,"ho":626,"ra":627,"et":628,"ig":629,"el":630,"ir":631,"th":632,"lo":633,"ec":634,"ur":635,"ent":636,"ag":637,"ation":638,"ith":639,"am":640,"id":641,"for":642,"ay":643,"with":644,"ad":645,"se":646,"lu":647,"all":648,"nd":649,"ter":650,"im":651,"ch":652,"oo":653,"ut":654,"ap":655,"str":656,"iv":657,"ack":658,"ck":659,"ot":660,"un":661,"St":662,">,":663,"ess":664,"ers":665,"ow":666,"ak":667,"ab":668,"ul":669,"est":670,"hoto":671,"um":672,"ce":673,"igh":674,"ts":675,"ew":676,"ain":677,"us":678,"em":679,"lustr":680,"fr":681,"lustration":682,"our":683,"20":684,"ov":685,"ign":686,"Ar":687,"ard":688,"pl":689,"age":690,"ding":691,"art":692,"if":693,"be":694,"In":695,"ock":696,"ect":697,"rou":698,"Ch":699,"ist":700,"by":701,"ip":702,"ure":703,"ear":704,"av":705,"illustration":706,"ph":707,"esign":708,"ite":709,"od":710,"up":711,"op":712,"ood":713,"ree":714,"Th":715,"ine":716,"are":717,"ct":718,"ast":719,"ight":720,"ide":721,"sp":722,"ant":723,"wh":724,"An":725,"ge":726,"ill":727,"stock":728,"ate":729,"ies":730,"gra":731,"ly":732,"ome":733,"room":734,"qu":735,"sh":736,"ld":737,"ass":738,"Art":739,"low":740,"from":741,"round":742,"ace":743,"ex":744,"os":745,"ev":746,"ost":747,"Photo":748,"con":749,"201":750,"che":751,"one":752,"ity":753,"int":754,"ake":755,"photo":756,"Sh":757,"back":758,"out":759,"pr":760,"ort":761,"ty":762,"air":763,"oun":764,"ive":765,"ground":766,"Be":767,"end":768,"ark":769,"og":770,"tr":771,"ne":772,"ian":773,"For":774,"br":775,"ated":776,"her":777,"ouse":778,"ting":779,"Of":780,"ook":781,"col":782,"Design":783,"man":784,"de":785,"sc":786,"ach":787,"ke":788,"ind":789,"wor":790,"graph":791,"Pr":792,"old":793,"day":794,"ice":795,"ie":796,"ia":797,"Ro":798,"we":799,"ector":800,"edding":801,"bo":802,"sho":803,"ater":804,"Car":805,"ick":806,"ish":807,"per":808,"ash":809,"com":810,"able":811,"background":812,"ust":813,"ver":814,"pro":815,"uil":816,"car":817,"ple":818,"te":819,"lack":820,"lass":821,"ther":822,"irt":823,"ment":824,"Sp":825,"that":826,"ail":827,"ial":828,"To":829,"ep":830,"ress":831,"white":832,"ong":833,"ire":834,"ict":835,"ber":836,"Pl":837,"land":838,"over":839,"raw":840,"Al":841,"les":842,"ry":843,"Fr":844,"Br":845,"mer":846,"ud":847,"reat":848,"Col":849,"this":850,"iew":851,"iz":852,"This":853,"eat":854,"yal":855,"ore":856,"ond":857,"its":858,"own":859,"you":860,"ok":861,"ang":862,"act":863,"ous":864,"als":865,"free":866,"aut":867,"ors":868,"irl":869,"Wh":870,"Sc":871,"''":872,"gh":873,"``":874,"uring":875,"do":876,"19":877,"ary":878,"Wor":879,"af":880,"ont":881,"tern":882,"graphy":883,"bed":884,"Tr":885,"off":886,"ave":887,"aper":888,"ink":889,"pt":890,"ction":891,"ings":892,"yle":893,"Wall":894,"row":895,"ib":896,"ell":897,"Com":898,"ecor":899,"uilding":900,"ures":901,"ve":902,"red":903,"ans":904,"yalty":905,"ame":906,"And":907,"tain":908,"pe":909,"me":910,"design":911,"ub":912,"ale":913,"ens":914,"ages":915,"ashion":916,"ery":917,"ile":918,"Sho":919,"your":920,"New":921,"..":922,"lue":923,"En":924,"royalty":925,"ath":926,"ade":927,"On":928,"reen":929,"au":930,"ext":931,"ical":932,"tle":933,"can":934,"Wedding":935,"toon":936,"ime":937,"Re":938,"Is":939,"play":940,"ue":941,"work":942,"unn":943,"whe":944,"go":945,"ition":946,"ior":947,"way":948,"Im":949,"ug":950,"paper":951,"fl":952,"ild":953,"oman":954,"Out":955,"Vector":956,"mas":957,"ound":958,"atto":959,"Se":960,"Bo":961,"ory":962,"ents":963,"vel":964,"view":965,"House":966,"was":967,"wood":968,"Shirt":969,"ike":970,"other":971,"co":972,"Fashion":973,"--":974,"tra":975,"Ex":976,"ance":977,"iving":978,"He":979,"line":980,"Tra":981,"Un":982,"set":983,"rist":984,"Con":985,"amp":986,"00":987,"ful":988,"Dress":989,"arm":990,"iful":991,"oc":992,"autiful":993,"new":994,"top":995,"Room":996,"part":997,"Black":998,"building":999,"ern":1000,"ich":1001,"ainting":1002,"It":1003,"Il":1004,"sk":1005,"look":1006,"ase":1007,"orn":1008,"during":1009,"hand":1010,"show":1011,"ff":1012,"wall":1013,"Ind":1014,"du":1015,"urn":1016,"Qu":1017,"Co":1018,"Mar":1019,">'":1020,"ss":1021,"alk":1022,"ball":1023,"az":1024,"itche":1025,"intage":1026,"Can":1027,"reet":1028,"Pro":1029,"und":1030,"ence":1031,"wo":1032,"sm":1033,"Le":1034,"ier":1035,"inter":1036,"Ide":1037,"World":1038,"Or":1039,"form":1040,"Hot":1041,"Sk":1042,"now":1043,"po":1044,"his":1045,"Christ":1046,"house":1047,"has":1048,"get":1049,"uit":1050,"ife":1051,"Mod":1052,"ins":1053,"let":1054,"io":1055,"ank":1056,"All":1057,"Illustration":1058,"arden":1059,"Pict":1060,"app":1061,"ute":1062,"aw":1063,"ys":1064,"Tatto":1065,"Draw":1066,"Decor":1067,"ft":1068,"ove":1069,"itchen":1070,"ee":1071,"cl":1072,"Ideas":1073,"With":1074,"Post":1075,"Dis":1076,"Man":1077,"ics":1078,"inc":1079,"ines":1080,"port":1081,"color":1082,"black":1083,"cept":1084,"loc":1085,"Home":1086,"rem":1087,"ould":1088,"ele":1089,"ids":1090,"iver":1091,"water":1092,"Christmas":1093,"ational":1094,"Back":1095,"hel":1096,"my":1097,"style":1098,"ons":1099,"ican":1100,"Anim":1101,"10":1102,"hool":1103,"uck":1104,"image":1105,"White":1106,"have":1107,"cle":1108,"vector":1109,"ily":1110,"girl":1111,"Ad":1112,"atch":1113,"res":1114,"but":1115,"photos":1116,"Sm":1117,"Bir":1118,"ape":1119,"ney":1120,"Hotel":1121,"home":1122,"ium":1123,"ions":1124,"photography":1125,"ream":1126,"asy":1127,"anc":1128,"ret":1129,"Bed":1130,"ets":1131,"unny":1132,"Fl":1133,"ob":1134,"ix":1135,"not":1136,"Vintage":1137,"que":1138,"2019":1139,"Day":1140,"irst":1141,"inn":1142,"ted":1143,"attern":1144,"ars":1145,"omen":1146,"ations":1147,"clo":1148,"flow":1149,"their":1150,"ise":1151,"images":1152,"will":1153,"cent":1154,"Mov":1155,">.":1156,"aby":1157,"ally":1158,"ople":1159,"ds":1160,"lection":1161,"Clo":1162,"Rec":1163,"You":1164,"Che":1165,"fer":1166,"read":1167,"Class":1168,"ating":1169,"ser":1170,"wedding":1171,"Eng":1172,"iness":1173,"hol":1174,"any":1175,"oll":1176,"draw":1177,"dr":1178,"which":1179,"ual":1180,"ble":1181,"blue":1182,"Girl":1183,"Print":1184,"terior":1185,"eng":1186,"ult":1187,"mod":1188,"iss":1189,"woman":1190,"rough":1191,"Red":1192,"oung":1193,"feat":1194,"acter":1195,"akes":1196,"door":1197,"Nor":1198,"ton":1199,"light":1200,"ull":1201,"ury":1202,"ountain":1203,"par":1204,"ym":1205,"table":1206,"aracter":1207,"book":1208,"use":1209,"year":1210,"usiness":1211,"ange":1212,"Park":1213,"Res":1214,"ann":1215,"where":1216,"cartoon":1217,"otes":1218,"ips":1219,"ining":1220,"Painting":1221,"amily":1222,"ittle":1223,"Part":1224,"ates":1225,"side":1226,"...":1227,"dition":1228,"At":1229,"located":1230,"Beautiful":1231,"wear":1232,"into":1233,"ize":1234,"Hand":1235,"stand":1236,"Gu":1237,"Do":1238,"dis":1239,"ural":1240,"No":1241,"Off":1242,"inal":1243,"lar":1244,"iel":1245,"cer":1246,"ric":1247,"Gr":1248,"Hair":1249,"dress":1250,"els":1251,"Photography":1252,"thday":1253,"loor":1254,"wer":1255,"Image":1256,"ient":1257,"Book":1258,"ious":1259,"Bar":1260,"Amer":1261,"Te":1262,"City":1263,"pos":1264,"so":1265,"Best":1266,"olated":1267,"enc":1268,"oot":1269,"Mus":1270,"Air":1271,"ik":1272,"Gra":1273,"head":1274,"ants":1275,"ards":1276,"My":1277,"hot":1278,"Hol":1279,"front":1280,"Her":1281,"Cent":1282,"Color":1283,"gr":1284,"cess":1285,"Wallpaper":1286,"glass":1287,"We":1288,"athroom":1289,"med":1290,"Me":1291,"mon":1292,"made":1293,"ax":1294,"eck":1295,"aces":1296,"more":1297,"Blue":1298,"aur":1299,"chit":1300,"Poster":1301,"some":1302,"no":1303,"Cartoon":1304,"ord":1305,"Ac":1306,"ats":1307,"ps":1308,"Dog":1309,"Port":1310,"shirt":1311,"sun":1312,"ustr":1313,"Old":1314,"aking":1315,"att":1316,"sign":1317,"Garden":1318,"Wood":1319,"cr":1320,"Ph":1321,"Sou":1322,"Water":1323,"ummer":1324,"iday":1325,"Ab":1326,"ross":1327,"ique":1328,"Quotes":1329,"less":1330,"Pe":1331,"like":1332,"text":1333,"about":1334,"met":1335,"make":1336,"Sto":1337,"ai":1338,"hed":1339,"two":1340,"try":1341,"alth":1342,"chitect":1343,"down":1344,"ondon":1345,"rec":1346,"ask":1347,"comp":1348,"ement":1349,"oon":1350,"uff":1351,"green":1352,"London":1353,"Disney":1354,"thing":1355,"near":1356,"How":1357,"ech":1358,"18":1359,"Mon":1360,"ches":1361,"Par":1362,"rown":1363,"through":1364,"ipes":1365,"Style":1366,"Cl":1367,"ren":1368,"first":1369,"Bedroom":1370,"Gold":1371,"Beach":1372,"De":1373,"ield":1374,"bow":1375,"time":1376,"ends":1377,"Log":1378,"itting":1379,"Kitchen":1380,"di":1381,"Pictures":1382,"ster":1383,"Cute":1384,"des":1385,"post":1386,"Living":1387,"Med":1388,"aster":1389,"after":1390,"erson":1391,"Flow":1392,"arr":1393,"ower":1394,"Modern":1395,"stud":1396,"rait":1397,"Funny":1398,"board":1399,"ping":1400,"Dr":1401,"bl":1402,"Men":1403,"who":1404,"pict":1405,"cover":1406,"2018":1407,"Min":1408,"lic":1409,"gan":1410,"min":1411,"appy":1412,"walk":1413,"fits":1414,"night":1415,"city":1416,"ames":1417,"raft":1418,"allow":1419,"Food":1420,"Birthday":1421,"sur":1422,"Love":1423,"ostum":1424,"Am":1425,"ley":1426,"Stock":1427,"ey":1428,"ital":1429,"spir":1430,"Sup":1431,"world":1432,"High":1433,"ica":1434,"ular":1435,"most":1436,"tow":1437,"Ap":1438,"Top":1439,"Classic":1440,"cre":1441,"tree":1442,"ever":1443,"North":1444,"bre":1445,"ities":1446,"rit":1447,"Drawing":1448,"Di":1449,"under":1450,"gu":1451,"ember":1452,"ellow":1453,"Make":1454,"School":1455,"ature":1456,"decor":1457,"Interior":1458,"View":1459,"Ser":1460,"indow":1461,"fect":1462,"ift":1463,"rop":1464,"Sil":1465,"vent":1466,"ustom":1467,"game":1468,"One":1469,"orts":1470,"ather":1471,"Tattoo":1472,"ails":1473,"people":1474,"ram":1475,"Ele":1476,"pattern":1477,"ette":1478,"Coun":1479,"yl":1480,"child":1481,"ough":1482,"rest":1483,"num":1484,"ible":1485,"ilm":1486,"Whe":1487,"dog":1488,"very":1489,"ped":1490,"Tattoos":1491,"12":1492,"Sun":1493,"Your":1494,"iture":1495,"isolated":1496,"Land":1497,"15":1498,"urniture":1499,"2020":1500,"small":1501,"fin":1502,"That":1503,"ters":1504,"As":1505,"Women":1506,"beds":1507,"ese":1508,"Sl":1509,"Free":1510,"Baby":1511,"Stud":1512,"aid":1513,"logo":1514,"best":1515,"chitecture":1516,"200":1517,"oft":1518,"beach":1519,"place":1520,"hotel":1521,"yles":1522,"bir":1523,"Street":1524,"ipe":1525,"ited":1526,"scape":1527,"Look":1528,"American":1529,"offee":1530,"ments":1531,"ights":1532,"Dresses":1533,"ival":1534,"Star":1535,"ely":1536,"fore":1537,"high":1538,"Travel":1539,"Party":1540,"Movie":1541,"Small":1542,"Kids":1543,"beautiful":1544,"Light":1545,"ied":1546,"just":1547,"vis":1548,"how":1549,"reative":1550,"idge":1551,"road":1552,"ench":1553,"ship":1554,"Set":1555,"Per":1556,"ah":1557,"coun":1558,"Life":1559,"Logo":1560,"por":1561,"Hist":1562,"Green":1563,"serv":1564,"Act":1565,"Photos":1566,"used":1567,"sil":1568,"Cat":1569,"bol":1570,"Up":1571,"pres":1572,"uc":1573,"imple":1574,"Picture":1575,"ven":1576,"gg":1577,"Recipes":1578,"esh":1579,"Animals":1580,"leev":1581,"produ":1582,"ott":1583,"aint":1584,"Cars":1585,"again":1586,"ects":1587,"they":1588,"open":1589,"face":1590,"ina":1591,"ody":1592,"concept":1593,"holding":1594,"ative":1595,"ane":1596,"area":1597,"Face":1598,"Bl":1599,"jo":1600,"bet":1601,"pet":1602,"painting":1603,"sw":1604,"ivers":1605,"Po":1606,"ason":1607,"right":1608,"iec":1609,"stru":1610,"olog":1611,"Designs":1612,"Dark":1613,"kitchen":1614,"Two":1615,"ote":1616,"Em":1617,"iginal":1618,"rel":1619,"sky":1620,"looking":1621,"food":1622,"sup":1623,"Go":1624,"ender":1625,"2017":1626,"rain":1627,"many":1628,"Music":1629,"remier":1630,"she":1631,"long":1632,"ymbol":1633,"team":1634,"Ve":1635,"icon":1636,"Pol":1637,"Building":1638,"Mag":1639,"ush":1640,"Ang":1641,"mark":1642,"Cont":1643,"iffer":1644,"Show":1645,"acket":1646,"tom":1647,"Character":1648,"Sw":1649,"US":1650,"rees":1651,"cho":1652,"Outfits":1653,"iling":1654,"Ne":1655,"hes":1656,"Indian":1657,"space":1658,"rey":1659,"Game":1660,"eel":1661,"ene":1662,"ject":1663,"fit":1664,"aurant":1665,"love":1666,"Fit":1667,"life":1668,"press":1669,"ired":1670,"Mot":1671,"emon":1672,"hair":1673,"box":1674,"Rock":1675,"inclu":1676,"around":1677,"11":1678,"Great":1679,"Met":1680,"50":1681,"ience":1682,"class":1683,"30":1684,"roup":1685,"large":1686,"sitting":1687,"wearing":1688,"men":1689,"flowers":1690,"Costum":1691,"print":1692,"young":1693,"apan":1694,"family":1695,"garden":1696,"She":1697,"Dec":1698,"plate":1699,"unk":1700,"16":1701,"South":1702,"featuring":1703,"floor":1704,"Background":1705,"ux":1706,"What":1707,"ron":1708,"gy":1709,"Architecture":1710,">)":1711,"Str":1712,"Year":1713,"Hum":1714,"From":1715,"against":1716,"field":1717,"mov":1718,"urs":1719,"ek":1720,"ives":1721,"these":1722,"ident":1723,"arn":1724,"Long":1725,"gold":1726,"atural":1727,"drawing":1728,"Tree":1729,"sea":1730,"key":1731,"may":1732,"event":1733,"Austr":1734,"bal":1735,"shop":1736,"street":1737,"rag":1738,"ories":1739,"hou":1740,"een":1741,"Furniture":1742,"omet":1743,"River":1744,"Japan":1745,"vas":1746,"Mem":1747,"King":1748,"park":1749,"Cr":1750,"bot":1751,"wooden":1752,"Bag":1753,"bs":1754,"rap":1755,"cat":1756,"Are":1757,"Cool":1758,"ays":1759,"bag":1760,"Outdoor":1761,"Business":1762,"ideas":1763,"aves":1764,"boy":1765,"need":1766,"Bathroom":1767,"Child":1768,"remiere":1769,"National":1770,"Afr":1771,"iet":1772,"add":1773,"ring":1774,"ert":1775,"were":1776,"Val":1777,"ouple":1778,"number":1779,"Aw":1780,"business":1781,"antasy":1782,"urch":1783,"when":1784,"Sea":1785,"Shop":1786,"Happy":1787,"ener":1788,"fri":1789,"auty":1790,"14":1791,"Work":1792,"Truck":1793,"Cra":1794,"cor":1795,"icker":1796,"Over":1797,"West":1798,"little":1799,"Map":1800,"Images":1801,"Comp":1802,"left":1803,"ides":1804,"Island":1805,"them":1806,"blo":1807,"fast":1808,"alloween":1809,"May":1810,"been":1811,"ider":1812,"useum":1813,"Ret":1814,"Get":1815,"ween":1816,"Little":1817,"Pal":1818,"Mil":1819,"town":1820,"airs":1821,"uch":1822,"Young":1823,"ices":1824,"tem":1825,"ifferent":1826,"Wear":1827,"Woman":1828,"anim":1829,"list":1830,"every":1831,"contain":1832,"here":1833,"fly":1834,"Cho":1835,"phone":1836,"cur":1837,"sec":1838,"cut":1839,"Portrait":1840,"Animal":1841,"Cor":1842,"2016":1843,"pack":1844,"window":1845,"pol":1846,"Mer":1847,"Austral":1848,"flower":1849,"idd":1850,"Collection":1851,"By":1852,"fire":1853,"sing":1854,"lect":1855,"orse":1856,"13":1857,"But":1858,"cy":1859,"mountain":1860,"ness":1861,"ones":1862,"avy":1863,"ditional":1864,"Concept":1865,"pre":1866,"Ital":1867,"Play":1868,"ling":1869,"17":1870,"picture":1871,"pool":1872,"colate":1873,"ves":1874,"Night":1875,"great":1876,"Hom":1877,"History":1878,"Lake":1879,"enn":1880,"Cake":1881,"also":1882,"ump":1883,"Table":1884,"lub":1885,"wallpaper":1886,"These":1887,"Halloween":1888,"bro":1889,"Mountain":1890,"bers":1891,"while":1892,"lus":1893,"Good":1894,"yst":1895,"ific":1896,"India":1897,"standing":1898,"Bal":1899,"card":1900,"dark":1901,"Fire":1902,"fish":1903,"modern":1904,"ional":1905,"Road":1906,"Jun":1907,"Family":1908,"Jew":1909,"bar":1910,"Pattern":1911,"yard":1912,"Bre":1913,"leeve":1914,"uy":1915,"pink":1916,"estival":1917,"Super":1918,"aving":1919,"Farm":1920,"lin":1921,"Apart":1922,"foot":1923,"uss":1924,"Cele":1925,"elf":1926,"character":1927,"bec":1928,"mun":1929,"styles":1930,"Big":1931,"living":1932,"Inspir":1933,"Fantasy":1934,"Blo":1935,"ues":1936,"Pink":1937,"good":1938,"cean":1939,"even":1940,"Summer":1941,"ized":1942,"than":1943,"uro":1944,"Sal":1945,"Bat":1946,"mar":1947,"25":1948,"Cap":1949,"England":1950,"only":1951,"ming":1952,"ideo":1953,"eather":1954,"cap":1955,"Health":1956,"between":1957,"Spr":1958,"Box":1959,"prov":1960,"augh":1961,"cake":1962,"craft":1963,"showing":1964,"Har":1965,"rock":1966,"Cup":1967,"Des":1968,"asket":1969,"houette":1970,"ri":1971,"what":1972,"ham":1973,"Ear":1974,"big":1975,"collection":1976,"abin":1977,"bedroom":1978,"piec":1979,"olf":1980,"unning":1981,"HD":1982,"Fe":1983,"stract":1984,"outs":1985,"display":1986,"Sign":1987,"amer":1988,"ology":1989,"Plan":1990,"along":1991,"Office":1992,"rame":1993,"Pres":1994,"Size":1995,"pop":1996,"Shoes":1997,"bur":1998,"uary":1999,"ban":2000,"ept":2001,"quare":2002,"women":2003,"ger":2004,"vers":2005,"buil":2006,"Gl":2007,"echn":2008,"Cook":2009,"Museum":2010,"creative":2011,"Brit":2012,"cele":2013,"Lux":2014,"nam":2015,"school":2016,"Winter":2017,"baby":2018,"emale":2019,"using":2020,"People":2021,"writ":2022,"led":2023,"before":2024,"snow":2025,"celebr":2026,"azing":2027,"ality":2028,"perfect":2029,"oney":2030,"each":2031,"Tour":2032,"ystem":2033,"cas":2034,"plan":2035,"spec":2036,"cir":2037,"Sur":2038,"ism":2039,"Floor":2040,"see":2041,"well":2042,"inese":2043,"bel":2044,"swe":2045,"fun":2046,"symbol":2047,"Vill":2048,"Av":2049,"del":2050,"forest":2051,"ince":2052,"fall":2053,"flag":2054,"mus":2055,"shot":2056,"Film":2057,"Dream":2058,"fts":2059,"tatto":2060,"jects":2061,"yellow":2062,"itch":2063,"bathroom":2064,"alf":2065,"hic":2066,"tic":2067,"heart":2068,"Cur":2069,"iles":2070,"pen":2071,"full":2072,"ists":2073,"Nov":2074,"Custom":2075,"Card":2076,"lywood":2077,"Rest":2078,"Lar":2079,"flat":2080,"Let":2081,"ints":2082,"aj":2083,"inner":2084,"poster":2085,"different":2086,"orning":2087,"hind":2088,"ator":2089,"2015":2090,"sl":2091,"reg":2092,"allery":2093,"icken":2094,"Glass":2095,"Angel":2096,"ased":2097,"py":2098,"Pot":2099,"24":2100,"grap":2101,"Cast":2102,"plant":2103,"Movies":2104,"summer":2105,"ten":2106,"etch":2107,"tour":2108,"Tem":2109,"Pat":2110,"ables":2111,"iding":2112,"kn":2113,"joy":2114,"fashion":2115,"French":2116,"der":2117,"map":2118,"iff":2119,"close":2120,"Sale":2121,"ways":2122,"there":2123,"Ger":2124,"ourt":2125,"Celebr":2126,"Fall":2127,"urple":2128,"det":2129,"Jacket":2130,"easy":2131,"three":2132,"Down":2133,"Euro":2134,"iev":2135,"ills":2136,"There":2137,"Flower":2138,"sal":2139,"trees":2140,"Center":2141,"Space":2142,"Close":2143,"bowl":2144,"ror":2145,"unch":2146,"Games":2147,"inside":2148,"Pop":2149,"children":2150,"cup":2151,"break":2152,"ll":2153,"Apr":2154,"eek":2155,"igital":2156,"Canvas":2157,"60":2158,"Royal":2159,"evel":2160,"years":2161,"Bel":2162,"ansp":2163,"oulder":2164,"week":2165,"gest":2166,"Flowers":2167,"Chinese":2168,"next":2169,"ublic":2170,"quar":2171,"Resort":2172,"lace":2173,"astic":2174,"Canad":2175,"Wild":2176,"United":2177,"Drawings":2178,"Anime":2179,"Person":2180,"umn":2181,"Grand":2182,"person":2183,"Places":2184,"War":2185,"Beauty":2186,"Sleeve":2187,"San":2188,"hands":2189,"100":2190,"present":2191,"hood":2192,"cook":2193,"ms":2194,"star":2195,"Club":2196,"ford":2197,"vert":2198,"Graph":2199,"bor":2200,"vintage":2201,"Foot":2202,"Sat":2203,"ille":2204,"seen":2205,"elry":2206,"ady":2207,"apers":2208,"original":2209,"screen":2210,"40":2211,"lish":2212,"Und":2213,"ising":2214,"3D":2215,"Fish":2216,"sol":2217,"Text":2218,"80":2219,"had":2220,"ibr":2221,"being":2222,"Del":2223,"ainted":2224,"Tips":2225,"kids":2226,"Ty":2227,"struction":2228,"oots":2229,"Inn":2230,"spe":2231,"ray":2232,"size":2233,"shows":2234,"News":2235,"Time":2236,"orial":2237,"Sky":2238,"ished":2239,"tim":2240,"Los":2241,"istic":2242,"mem":2243,"itary":2244,"ulpt":2245,"oral":2246,"incess":2247,"Neck":2248,"hold":2249,"March":2250,"ral":2251,"Motor":2252,"call":2253,"lead":2254,"avor":2255,"Heart":2256,"Bay":2257,"Luxury":2258,"Human":2259,"comple":2260,"working":2261,"Walk":2262,"Swe":2263,"First":2264,"load":2265,"lot":2266,"Europe":2267,"Coffee":2268,"Festival":2269,"Sing":2270,"Full":2271,"So":2272,"real":2273,"ved":2274,"cute":2275,"Intern":2276,"Tur":2277,"uter":2278,"winter":2279,"artment":2280,"3d":2281,"Bride":2282,"Front":2283,"Under":2284,"ured":2285,"party":2286,"ato":2287,"umb":2288,"Fig":2289,"office":2290,"Que":2291,"Ed":2292,"outside":2293,"El":2294,"pic":2295,"Cover":2296,"Photograph":2297,"gether":2298,"hist":2299,"mot":2300,"ands":2301,"model":2302,"Spring":2303,"Rain":2304,"bit":2305,"Cas":2306,"drawn":2307,"gle":2308,"April":2309,"then":2310,"boat":2311,"ouses":2312,"pot":2313,"papers":2314,"Au":2315,"ana":2316,"amond":2317,"ye":2318,"Not":2319,"pat":2320,"Real":2321,"fol":2322,"Girls":2323,"friend":2324,"Ant":2325,"uly":2326,"Marvel":2327,"Det":2328,"Landscape":2329,"Crafts":2330,"Bro":2331,"health":2332,"Phone":2333,"ago":2334,"ces":2335,"irts":2336,"Leather":2337,"Sec":2338,"lay":2339,"Slim":2340,"Rev":2341,"suit":2342,"Clothing":2343,"Af":2344,"simple":2345,"sou":2346,"acing":2347,"Holiday":2348,"ouch":2349,"anch":2350,"take":2351,"retty":2352,"pan":2353,"Some":2354,"Just":2355,"son":2356,"afe":2357,"ced":2358,"ragon":2359,"iron":2360,"err":2361,"var":2362,"Week":2363,"2014":2364,"Cle":2365,"adow":2366,"Cre":2367,"AP":2368,"Large":2369,"sale":2370,"Rem":2371,"Comics":2372,"Chic":2373,"custom":2374,"come":2375,"British":2376,"Sn":2377,"reek":2378,"Metal":2379,"fe":2380,"glasses":2381,"Bra":2382,"ailable":2383,"ection":2384,"stone":2385,"Premiere":2386,"tract":2387,"Cos":2388,"cons":2389,"couple":2390,"coffee":2391,"ples":2392,"tit":2393,"amless":2394,"Books":2395,"ution":2396,"orage":2397,"Costume":2398,"cream":2399,"Japanese":2400,"anging":2401,"Mother":2402,"CA":2403,"ering":2404,"English":2405,"Vis":2406,"Australia":2407,"case":2408,"Silver":2409,"perform":2410,"earn":2411,"dom":2412,"last":2413,"Paris":2414,"ample":2415,"21":2416,"leg":2417,"iddle":2418,"Find":2419,"looks":2420,"Jan":2421,"playing":2422,"LE":2423,"bon":2424,"imming":2425,"Country":2426,"thes":2427,"East":2428,"test":2429,"Hollywood":2430,"Pet":2431,"fresh":2432,"Fair":2433,"would":2434,"ility":2435,"start":2436,"Mark":2437,"Princess":2438,"Line":2439,"Aug":2440,"Earth":2441,"amera":2442,"Paper":2443,"obile":2444,"China":2445,"center":2446,"cts":2447,"Inspiration":2448,"brown":2449,"point":2450,"When":2451,"ause":2452,"main":2453,"eting":2454,"akers":2455,"Suit":2456,"Camp":2457,"Will":2458,"tion":2459,"ler":2460,"interior":2461,"Gal":2462,"restaurant":2463,"DI":2464,"ino":2465,"Posters":2466,").":2467,"gar":2468,"past":2469,"Every":2470,"berry":2471,"group":2472,"Toy":2473,"Hel":2474,"Leg":2475,"Champ":2476,"199":2477,"order":2478,"illed":2479,"ctor":2480,"movie":2481,"students":2482,"evelop":2483,"Most":2484,"Soc":2485,"together":2486,"pass":2487,"eds":2488,"ca":2489,"Hall":2490,"aken":2491,"Jewelry":2492,"vol":2493,"Online":2494,"Snow":2495,"22":2496,"Cal":2497,"agement":2498,"Moon":2499,"iny":2500,"ste":2501,"Wars":2502,"orm":2503,"Mini":2504,"want":2505,"ifts":2506,"photograph":2507,"porary":2508,"dec":2509,"abric":2510,"Golden":2511,"ky":2512,"stall":2513,"Sports":2514,"Inter":2515,"Boy":2516,"sand":2517,"Hood":2518,"body":2519,"),":2520,"Colors":2521,"second":2522,"atic":2523,"70":2524,"match":2525,"Comic":2526,"spired":2527,"encil":2528,"June":2529,"amous":2530,"put":2531,"Homes":2532,"Sept":2533,"tattoo":2534,"Cross":2535,"July":2536,"Creat":2537,"tail":2538,"Dining":2539,"Simple":2540,"Series":2541,"African":2542,"mag":2543,"Easy":2544,"Nature":2545,"emp":2546,"recipe":2547,"Natural":2548,"Angeles":2549,"oil":2550,"cross":2551,"piece":2552,"Sol":2553,"Plans":2554,"Gift":2555,"hat":2556,"don":2557,"achine":2558,"cessories":2559,"clou":2560,"ours":2561,"Head":2562,"Yellow":2563,"Rel":2564,"Who":2565,"Mens":2566,"emony":2567,"iting":2568,"Force":2569,"Wal":2570,"miss":2571,"help":2572,"sunset":2573,"Model":2574,"know":2575,"film":2576,"portrait":2577,"above":2578,"Su":2579,"23":2580,"Bud":2581,"grapher":2582,"val":2583,"nes":2584,"walking":2585,"lab":2586,"Case":2587,"Bot":2588,"watch":2589,"frame":2590,"found":2591,"run":2592,"thern":2593,"holiday":2594,"shel":2595,"hib":2596,"season":2597,"hom":2598,"state":2599,"pes":2600,"Dogs":2601,"cel":2602,"cast":2603,"Nails":2604,"Hairstyles":2605,"four":2606,"ency":2607,"bat":2608,"behind":2609,"mill":2610,"Fun":2611,"ardens":2612,"wa":2613,"ots":2614,"travel":2615,"Read":2616,"Toys":2617,"rab":2618,"Things":2619,"ded":2620,"UK":2621,"Oc":2622,"Je":2623,"Short":2624,"Team":2625,"Learn":2626,"care":2627,"Guide":2628,"metal":2629,"amb":2630,"Doll":2631,"farm":2632,"power":2633,"adium":2634,"landscape":2635,"corn":2636,"munity":2637,"antic":2638,"Restaurant":2639,"acks":2640,"grass":2641,"Watch":2642,"leep":2643,"Grey":2644,"colors":2645,"aning":2646,"bird":2647,"chair":2648,"La":2649,"Body":2650,"inning":2651,"Sticker":2652,"aker":2653,"Us":2654,"ox":2655,"Ag":2656,"ols":2657,"project":2658,"gl":2659,"host":2660,"pictures":2661,"la":2662,"uture":2663,"icial":2664,"Paint":2665,"exp":2666,"Mex":2667,"Reg":2668,"find":2669,"iant":2670,"apartment":2671,"zy":2672,"Mal":2673,"sub":2674,"pal":2675,"28":2676,"available":2677,"band":2678,"leaves":2679,"uitar":2680,"Retro":2681,"Forest":2682,"Group":2683,"Tw":2684,"market":2685,"river":2686,"Univers":2687,"ville":2688,"camp":2689,"Studio":2690,"International":2691,"Produ":2692,"drink":2693,"letter":2694,"self":2695,"Pan":2696,"ving":2697,"aff":2698,"away":2699,"cont":2700,"Here":2701,"ready":2702,"grow":2703,"ena":2704,"Kn":2705,"America":2706,"gram":2707,"mat":2708,"Canada":2709,"asketball":2710,"gas":2711,".''":2712,"Ocean":2713,"store":2714,"bridge":2715,"imal":2716,"Gallery":2717,"ouble":2718,"ibrary":2719,"ustic":2720,"Church":2721,"works":2722,"bright":2723,"Friday":2724,"designs":2725,"Sund":2726,"lap":2727,"icy":2728,"Ford":2729,"ems":2730,"Russ":2731,"organ":2732,"Inc":2733,"stage":2734,"transp":2735,"izz":2736,"Pack":2737,"anks":2738,"Graphic":2739,"fact":2740,"Italy":2741,"Castle":2742,"music":2743,"ulpture":2744,"ument":2745,"features":2746,"DIY":2747,"ctric":2748,"too":2749,"maid":2750,"They":2751,"idal":2752,"mil":2753,"orange":2754,"Open":2755,"Buy":2756,"iqu":2757,"ope":2758,"27":2759,"ivities":2760,"ze":2761,"Anc":2762,"II":2763,"Abstract":2764,"ief":2765,"amic":2766,"ength":2767,"omy":2768,"dy":2769,"fac":2770,"Base":2771,"Stuff":2772,"bus":2773,"Isolated":2774,"elling":2775,"Bridge":2776,"ched":2777,"Phil":2778,"ised":2779,"hum":2780,"Apartment":2781,"Fin":2782,"reeting":2783,"Trail":2784,"earch":2785,"atue":2786,"Mug":2787,"atest":2788,"onto":2789,"happy":2790,"enjoy":2791,"cles":2792,"Wallpapers":2793,"About":2794,"Children":2795,"Bear":2796,"Don":2797,"Fri":2798,"Cabin":2799,"inger":2800,"irus":2801,"26":2802,"2013":2803,"built":2804,"Costumes":2805,"taken":2806,"eps":2807,"yd":2808,"USA":2809,"Jo":2810,"making":2811,"neck":2812,"Side":2813,"Healthy":2814,"Horse":2815,"ha":2816,"lines":2817,"Three":2818,"Queen":2819,"super":2820,"See":2821,"mother":2822,"vill":2823,"ode":2824,"Ancient":2825,"gant":2826,"Shel":2827,"Square":2828,"Dragon":2829,"Window":2830,"girls":2831,"anner":2832,"Amazing":2833,"Den":2834,"Military":2835,"Trans":2836,"stick":2837,"writing":2838,"Rep":2839,"Chocolate":2840,"Cro":2841,"Check":2842,"urday":2843,"Made":2844,"Tim":2845,"roof":2846,"sn":2847,"TV":2848,">:":2849,"soc":2850,"Soft":2851,"colorful":2852,"roll":2853,"Paintings":2854,"Serv":2855,"system":2856,"Medium":2857,"phy":2858,"mo":2859,"leather":2860,"half":2861,"Ring":2862,"lights":2863,"oga":2864,"Company":2865,"Saturday":2866,"iPhone":2867,"Original":2868,"Shower":2869,"ward":2870,"Coast":2871,"ination":2872,"both":2873,"Creative":2874,"State":2875,"shoes":2876,"Have":2877,"still":2878,"illow":2879,"Exterior":2880,"egg":2881,"Ball":2882,"Drink":2883,"traditional":2884,"lands":2885,"spring":2886,"opy":2887,"ental":2888,"dining":2889,"hard":2890,"iety":2891,"Hoodie":2892,"Town":2893,"Mo":2894,"ama":2895,"acation":2896,"ided":2897,"mix":2898,"Dead":2899,"Science":2900,"Door":2901,"Ven":2902,"Hun":2903,"plants":2904,"lege":2905,"Around":2906,"flo":2907,"ipp":2908,"azine":2909,"natural":2910,"29":2911,"morning":2912,"Like":2913,"Cam":2914,"vit":2915,"Awards":2916,"desk":2917,"scap":2918,"cycle":2919,"train":2920,"Bur":2921,"Plant":2922,"Bow":2923,"Projects":2924,"Vol":2925,"agram":2926,"Trucks":2927,"Ann":2928,"000":2929,"Sim":2930,"word":2931,"doors":2932,"Cir":2933,"France":2934,"trans":2935,"Sand":2936,"silver":2937,"Silhouette":2938,"estern":2939,"Video":2940,"short":2941,"Easter":2942,"ooth":2943,"overs":2944,"camera":2945,"Tod":2946,"painted":2947,"render":2948,"Kore":2949,"turn":2950,"ister":2951,"online":2952,"Rooms":2953,"across":2954,"196":2955,"Ge":2956,"Seat":2957,"equ":2958,"ref":2959,"ari":2960,"Cakes":2961,"clip":2962,"ference":2963,"Bas":2964,"Sunday":2965,"could":2966,"chocolate":2967,"ird":2968,"esy":2969,"few":2970,"Break":2971,"avorite":2972,"special":2973,"struct":2974,"Board":2975,"Navy":2976,"ofess":2977,"Styles":2978,"ugar":2979,">/":2980,"including":2981,"lim":2982,"base":2983,"Spec":2984,"Valley":2985,"Tor":2986,"exper":2987,"Spir":2988,"Buil":2989,"cot":2990,"bour":2991,"soft":2992,"oss":2993,"anta":2994,"ients":2995,"Football":2996,"shape":2997,"uz":2998,"Ho":2999,"designed":3000,"Brown":3001,"ague":3002,"cher":3003,"iking":3004,"butter":3005,"dire":3006,"Power":3007,"known":3008,"fig":3009,"mit":3010,"Flat":3011,"Wooden":3012,"cell":3013,"ulture":3014,"Shoulder":3015,"NG":3016,"ropical":3017,"ottage":3018,"Makeup":3019,"anger":3020,"bul":3021,"vest":3022,"gener":3023,"Butter":3024,"vehic":3025,"ony":3026,"ply":3027,"More":3028,"Ev":3029,"atches":3030,"nut":3031,"Roman":3032,"ought":3033,"covered":3034,"Organ":3035,"Tv":3036,"Africa":3037,"grey":3038,"Hor":3039,"Brand":3040,"animals":3041,"pair":3042,"techn":3043,"Lab":3044,"country":3045,"live":3046,"Char":3047,"bride":3048,"Gardens":3049,"month":3050,"Lion":3051,"classic":3052,"appear":3053,"prom":3054,"prot":3055,"surround":3056,"iger":3057,"formation":3058,"Oil":3059,"female":3060,"90":3061,"race":3062,"Watercolor":3063,"TH":3064,"mask":3065,"outdoor":3066,"horse":3067,"hose":3068,"Gar":3069,"Looking":3070,"ries":3071,"Store":3072,"lowing":3073,"ta":3074,"Tower":3075,"Story":3076,"truck":3077,"kin":3078,"series":3079,"Orange":3080,"ivate":3081,"birthday":3082,"August":3083,"Cer":3084,"site":3085,"Ice":3086,"Boots":3087,"Chicken":3088,"Ste":3089,"irror":3090,"gray":3091,"Master":3092,"End":3093,"lake":3094,"After":3095,"gift":3096,"atre":3097,"much":3098,"Flag":3099,"ata":3100,"Mad":3101,"198":3102,"nor":3103,"ually":3104,"popular":3105,"company":3106,"Purple":3107,"Fac":3108,"another":3109,"Emp":3110,"Ham":3111,"glo":3112,"ork":3113,"Stand":3114,"ceremony":3115,"Hill":3116,"video":3117,"breakfast":3118,"artist":3119,"iors":3120,"quality":3121,"Italian":3122,"Army":3123,"ose":3124,"thetic":3125,"Season":3126,"animal":3127,"cand":3128,"net":3129,"neakers":3130,"tur":3131,"Ke":3132,"Way":3133,"ometric":3134,"aughter":3135,"ount":3136,"Engine":3137,"wild":3138,"2012":3139,"Backyard":3140,"distr":3141,"sen":3142,"utorial":3143,"silhouette":3144,"edge":3145,"God":3146,"onder":3147,"Batman":3148,"Roll":3149,"same":3150,"Diamond":3151,"Take":3152,"Characters":3153,"Ir":3154,"dist":3155,"brand":3156,"Coloring":3157,"Arts":3158,"viron":3159,"ancing":3160,"lux":3161,"Nail":3162,"ourtesy":3163,"Advent":3164,"ylish":3165,"197":3166,"eye":3167,"create":3168,"ef":3169,"swimming":3170,"Cosplay":3171,"rise":3172,"Cut":3173,"vet":3174,"Cy":3175,"lym":3176,"Ber":3177,"scene":3178,"omb":3179,"develop":3180,"Female":3181,"shap":3182,"ored":3183,"eff":3184,"bike":3185,"cars":3186,"football":3187,"ison":3188,"wide":3189,"Techn":3190,"ective":3191,"learn":3192,"Bird":3193,"should":3194,"makes":3195,"Pretty":3196,"ara":3197,"Num":3198,"Glo":3199,"aging":3200,"title":3201,"Perfect":3202,"Patterns":3203,"rent":3204,"lush":3205,"Gown":3206,"AS":3207,"Fly":3208,"bra":3209,"reath":3210,"Gifts":3211,"ials":3212,"Dub":3213,"remium":3214,"rip":3215,"September":3216,"Memes":3217,"Plants":3218,"cert":3219,"product":3220,"Dance":3221,"University":3222,"Chicago":3223,"things":3224,"Mang":3225,"premiere":3226,"Ass":3227,"Ow":3228,"think":3229,"If":3230,"quet":3231,"Event":3232,"ivity":3233,"odge":3234,"condition":3235,"Our":3236,"says":3237,"paint":3238,"Jour":3239,"wheel":3240,"station":3241,"Palace":3242,"today":3243,"County":3244,"mountains":3245,"Accessories":3246,"veget":3247,"Sport":3248,"iber":3249,"cool":3250,"Couple":3251,"gypt":3252,"Artwork":3253,"tober":3254,"page":3255,"him":3256,"cal":3257,"Colorful":3258,"Magic":3259,"axy":3260,"coat":3261,"Corn":3262,"Germany":3263,"eal":3264,"ston":3265,"acher":3266,"running":3267,"sim":3268,"vironment":3269,"check":3270,"aching":3271,"pose":3272,"Four":3273,"tw":3274,"visit":3275,"Stadium":3276,"graphic":3277,"warm":3278,"does":3279,"groom":3280,"bread":3281,"dess":3282,"Sunset":3283,"Eye":3284,"mal":3285,"fort":3286,"Asian":3287,"going":3288,"computer":3289,"digital":3290,"arent":3291,"version":3292,"clos":3293,"Mos":3294,"Egypt":3295,"iam":3296,"bottle":3297,"ofa":3298,"keep":3299,"bruary":3300,"service":3301,"displayed":3302,"perty":3303,"trail":3304,"island":3305,"hip":3306,"Save":3307,"ga":3308,"Step":3309,"orses":3310,"Cand":3311,"Mom":3312,"Apartments":3313,"da":3314,"arch":3315,"stands":3316,"Fro":3317,"ala":3318,"Past":3319,"sit":3320,"retro":3321,"Necklace":3322,"uccess":3323,"century":3324,"ube":3325,"ades":3326,"Du":3327,"ocean":3328,"conn":3329,"Figure":3330,"Wed":3331,"having":3332,"ises":3333,"smiling":3334,"February":3335,"held":3336,"Last":3337,"creat":3338,"plane":3339,"lock":3340,"hu":3341,"Prom":3342,"Kit":3343,"born":3344,"without":3345,"ma":3346,"esthetic":3347,"moon":3348,"rylic":3349,"guest":3350,"coming":3351,"colour":3352,"costum":3353,"crete":3354,"Unique":3355,"erc":3356,"talk":3357,"change":3358,"Sketch":3359,"comb":3360,"Storage":3361,"Theatre":3362,"Desk":3363,"Letter":3364,"sticker":3365,"35":3366,"crow":3367,"Call":3368,"sweet":3369,"nature":3370,"Patio":3371,"Pool":3372,"contr":3373,"October":3374,"uits":3375,"chet":3376,"cabin":3377,"Apple":3378,"Sam":3379,"Ur":3380,"level":3381,"fruit":3382,"January":3383,"__":3384,"ization":3385,"Now":3386,"bas":3387,"unique":3388,"ls":3389,"den":3390,"ges":3391,"rying":3392,"itter":3393,"Hero":3394,"drop":3395,"omantic":3396,"Pre":3397,"Champion":3398,"Mac":3399,"Stone":3400,"Even":3401,"tar":3402,"Antique":3403,"Bad":3404,"Digital":3405,"Market":3406,"Stars":3407,"Cream":3408,"square":3409,"delic":3410,"ustrial":3411,"onav":3412,"early":3413,"Wine":3414,"hing":3415,"walls":3416,"burg":3417,"because":3418,"Any":3419,"mes":3420,"iation":3421,">-":3422,"Symbol":3423,"buy":3424,"Bike":3425,"Mat":3426,"Bang":3427,"Police":3428,"Lady":3429,"uk":3430,"Traditional":3431,"ursday":3432,"healthy":3433,"Central":3434,"Recipe":3435,"Dep":3436,"aven":3437,"ains":3438,"Contem":3439,"Bet":3440,"Lord":3441,"Chev":3442,"onavirus":3443,"player":3444,"Pup":3445,"oric":3446,"Appar":3447,"Lay":3448,"based":3449,"reading":3450,"ging":3451,"action":3452,"Sweet":3453,"Gear":3454,"oper":3455,"Artist":3456,"funny":3457,"sketch":3458,"Thursday":3459,"outh":3460,"Bul":3461,"icks":3462,"spital":3463,"feel":3464,"Coat":3465,"Atl":3466,"Potter":3467,"training":3468,"Aut":3469,"Hat":3470,"path":3471,"laptop":3472,"ware":3473,"icle":3474,"ero":3475,"ico":3476,"inds":3477,"dam":3478,"iform":3479,"Bridal":3480,"Arm":3481,"November":3482,"clear":3483,"Prints":3484,"nesday":3485,"atomy":3486,"Vehic":3487,"Houses":3488,"Station":3489,"Contemporary":3490,"said":3491,"Need":3492,"Valent":3493,"construction":3494,"cour":3495,"Lo":3496,"dish":3497,"stars":3498,"position":3499,"rot":3500,"sits":3501,"ini":3502,"books":3503,"mom":3504,"inspir":3505,"inyl":3506,"Wednesday":3507,"Tues":3508,"seamless":3509,"College":3510,"name":3511,"States":3512,"hero":3513,"Decorations":3514,"char":3515,"Tuesday":3516,"iti":3517,"Floral":3518,"Outfit":3519,"Shirts":3520,"adem":3521,"Train":3522,"forman":3523,"unt":3524,"esome":3525,"Expl":3526,"Inside":3527,"detail":3528,"Barn":3529,"Library":3530,"motor":3531,"auce":3532,"Gre":3533,"Olym":3534,"got":3535,"such":3536,"League":3537,"ores":3538,"taking":3539,"Spe":3540,"arrow":3541,"purple":3542,"pract":3543,"Fresh":3544,"Mid":3545,"bum":3546,"Activities":3547,"Boys":3548,"story":3549,"Decorating":3550,"phant":3551,"ikes":3552,"Carpet":3553,"aming":3554,"Chair":3555,"friends":3556,"Sen":3557,"Hy":3558,"must":3559,"inspired":3560,"giving":3561,"ubble":3562,"abstract":3563,"Icon":3564,"ians":3565,"ora":3566,"Feat":3567,"eyes":3568,"requ":3569,"engine":3570,"Apparel":3571,"somet":3572,"Magazine":3573,"ancy":3574,"Dess":3575,"hibition":3576,"Western":3577,"mand":3578,"adies":3579,"Use":3580,"scaping":3581,"rooms":3582,"Lego":3583,"sports":3584,"Hard":3585,"ences":3586,"Monday":3587,"ung":3588,"ighter":3589,"comes":3590,"iest":3591,"circle":3592,"engers":3593,"texture":3594,"hi":3595,"Golf":3596,"Greek":3597,"Mel":3598,"inder":3599,"bear":3600,"Tea":3601,"Cow":3602,"oodle":3603,"awn":3604,"etches":3605,"orian":3606,"Care":3607,"wine":3608,"Australian":3609,"process":3610,"Round":3611,"anish":3612,"weight":3613,"Rings":3614,"orge":3615,"Village":3616,"Creatures":3617,"ursery":3618,"Visit":3619,"sem":3620,"bad":3621,"chicken":3622,"Vict":3623,"LA":3624,"Place":3625,"izza":3626,"Backpack":3627,"shire":3628,"iverse":3629,"ios":3630,"Cottage":3631,"Trees":3632,"Birds":3633,"Band":3634,"uzz":3635,"student":3636,"human":3637,"famous":3638,"grad":3639,"Special":3640,"plac":3641,"called":3642,"ended":3643,"lum":3644,"favorite":3645,"war":3646,"Miss":3647,"Mix":3648,"tea":3649,"stra":3650,"cow":3651,"surface":3652,"iers":3653,"Boat":3654,"filled":3655,"block":3656,"aud":3657,"local":3658,"endy":3659,"nal":3660,"ula":3661,"doll":3662,"Aud":3663,"Por":3664,"Century":3665,"Spa":3666,"single":3667,"tro":3668,"sport":3669,"ocktail":3670,"sold":3671,"Decoration":3672,"ensive":3673,"furniture":3674,"Royalty":3675,"apple":3676,"Oak":3677,"President":3678,"Piec":3679,"Lighting":3680,"mini":3681,"icro":3682,"did":3683,"Live":3684,"Writ":3685,"van":3686,"German":3687,"aches":3688,"nic":3689,"acy":3690,"Jack":3691,"jacket":3692,"ected":3693,"Review":3694,"Casual":3695,"endant":3696,"blem":3697,"inos":3698,"Squ":3699,"takes":3700,"windows":3701,"idea":3702,"web":3703,"thouse":3704,"stop":3705,"Scot":3706,"Low":3707,"ying":3708,"Lace":3709,"rece":3710,"Mr":3711,"lex":3712,"mater":3713,"machine":3714,"Distr":3715,"Premium":3716,"ken":3717,"Greeting":3718,"created":3719,"actor":3720,"Breakfast":3721,"those":3722,"buildings":3723,"shar":3724,"ered":3725,"ett":3726,"compet":3727,"money":3728,"Another":3729,"ires":3730,"Rustic":3731,"illa":3732,"redit":3733,"Bright":3734,"bsite":3735,"redients":3736,"cul":3737,"ager":3738,"flu":3739,"steel":3740,"asons":3741,"Point":3742,"Ul":3743,"Ship":3744,"Kingdom":3745,"agle":3746,"Galaxy":3747,"flying":3748,"emade":3749,"essed":3750,"ilar":3751,"erial":3752,"Pos":3753,"Wel":3754,"December":3755,"really":3756,"public":3757,"import":3758,"Temple":3759,"Clou":3760,"champ":3761,"support":3762,"ships":3763,"uses":3764,"pers":3765,"System":3766,"vertising":3767,"ige":3768,"coast":3769,"Morning":3770,"Page":3771,"Lin":3772,"beg":3773,"cheese":3774,"ona":3775,"ession":3776,"aste":3777,"ceiling":3778,"install":3779,"formance":3780,"imb":3781,"elements":3782,"clouds":3783,"NY":3784,"Sub":3785,"istan":3786,".,":3787,"45":3788,"hen":3789,"ramed":3790,"2011":3791,"oke":3792,"middle":3793,"Future":3794,"Anatomy":3795,"Cafe":3796,"step":3797,"Aesthetic":3798,"views":3799,"afet":3800,"Centre":3801,"ros":3802,"pick":3803,"give":3804,"duc":3805,"ieval":3806,"bags":3807,"ocks":3808,"holds":3809,"rub":3810,"ipment":3811,"trip":3812,"shown":3813,"partic":3814,"Altern":3815,"abet":3816,"Villa":3817,"posed":3818,"RE":3819,"Stick":3820,"products":3821,"amazing":3822,"chairs":3823,"31":3824,"ola":3825,"Arab":3826,"outfit":3827,"Steel":3828,"Celebrity":3829,"Loc":3830,"wind":3831,"Cats":3832,"final":3833,"European":3834,"community":3835,"icons":3836,"ydney":3837,"Iron":3838,"Where":3839,"oor":3840,"Arch":3841,"template":3842,"dresses":3843,"fabric":3844,"days":3845,"Terr":3846,"Lot":3847,"Manga":3848,"Mor":3849,",''":3850,"gets":3851,"imate":3852,"ource":3853,"fro":3854,"Sneakers":3855,"Song":3856,"MA":3857,"clean":3858,"ified":3859,"Sculpture":3860,"Doors":3861,"luxury":3862,"36":3863,"yes":3864,"FI":3865,"mult":3866,"bean":3867,"ajor":3868,"among":3869,"meal":3870,"ential":3871,"earl":3872,"includes":3873,"pa":3874,"195":3875,"brick":3876,"far":3877,"bell":3878,"Sydney":3879,"west":3880,"mission":3881,"smart":3882,"ofessional":3883,"Scar":3884,"date":3885,"Guest":3886,"zen":3887,"Key":3888,"sy":3889,"hall":3890,"church":3891,"wing":3892,"Fine":3893,"hanging":3894,"Son":3895,"Toronto":3896,"resp":3897,"Academ":3898,"gen":3899,"former":3900,"ru":3901,"na":3902,"leaf":3903,"history":3904,"transparent":3905,"plastic":3906,"houses":3907,"always":3908,"Frame":3909,"appl":3910,"inosaur":3911,"Farmhouse":3912,"official":3913,"ume":3914,"ece":3915,"Autumn":3916,"omens":3917,"contin":3918,"colored":3919,"Plus":3920,"numbers":3921,"ij":3922,"floral":3923,"Gener":3924,"rib":3925,"Singap":3926,"cakes":3927,"Project":3928,"agon":3929,"itage":3930,"hedr":3931,"Skull":3932,"dream":3933,"pieces":3934,"eating":3935,"gradient":3936,"venue":3937,"anning":3938,"Net":3939,"Bath":3940,"Build":3941,"Singapore":3942,"Flo":3943,"master":3944,"Prince":3945,"foc":3946,"Bottle":3947,"ouquet":3948,"Fol":3949,"lun":3950,"hy":3951,"range":3952,"entr":3953,"umpkin":3954,"rid":3955,"Mountains":3956,"oring":3957,"Edition":3958,"members":3959,"vehicle":3960,"airy":3961,"ined":3962,"Nike":3963,"Mexico":3964,"pression":3965,"cony":3966,"Less":3967,"AF":3968,"cra":3969,"Cards":3970,"ira":3971,"rendering":3972,"Bible":3973,"cm":3974,"pup":3975,"sever":3976,"Run":3977,"ugs":3978,"Fruit":3979,"hor":3980,"chester":3981,"Mask":3982,"itive":3983,"daughter":3984,"never":3985,"afety":3986,"Spain":3987,"inch":3988,"Rainbow":3989,"poss":3990,"boys":3991,"Max":3992,"!!":3993,"Area":3994,"Action":3995,"sleep":3996,"aged":3997,"iter":3998,"expl":3999,"Cot":4000,"har":4001,"icket":4002,"Roof":4003,"recent":4004,"iversary":4005,"Las":4006,"architecture":4007,"ception":4008,"male":4009,"dinner":4010,"Must":4011,"lif":4012,"hedral":4013,"ults":4014,"Chap":4015,"Acrylic":4016,"Elegant":4017,"je":4018,"five":4019,"poses":4020,"Quil":4021,"aze":4022,"Sketches":4023,"Curtain":4024,"ennis":4025,"Korean":4026,"Seamless":4027,"THE":4028,"igin":4029,"better":4030,"Middle":4031,"ained":4032,"eath":4033,"ived":4034,"studio":4035,"eas":4036,"players":4037,"icorn":4038,"izes":4039,"Fabric":4040,"Arr":4041,"job":4042,"Lov":4043,"evening":4044,"erts":4045,"loy":4046,"Lights":4047,"appro":4048,"oned":4049,"bud":4050,"beauty":4051,"police":4052,"2010":4053,"thor":4054,"Mill":4055,"List":4056,"Ben":4057,"say":4058,"Adventure":4059,"orical":4060,"basketball":4061,"dler":4062,"orgeous":4063,"azz":4064,"ota":4065,"Trends":4066,"build":4067,"Crochet":4068,"ner":4069,"Yoga":4070,"fur":4071,"ially":4072,"Spirit":4073,"merc":4074,"Fairy":4075,"atory":4076,"Students":4077,"His":4078,"estyle":4079,"type":4080,"illustr":4081,"rele":4082,"golden":4083,"listed":4084,"photographer":4085,"Walking":4086,"national":4087,"loon":4088,"banner":4089,"Franc":4090,"treat":4091,"prepar":4092,"ka":4093,"nee":4094,"coronavirus":4095,"Tiny":4096,"Kong":4097,"Field":4098,"Fox":4099,"Service":4100,"win":4101,"Cooking":4102,"entrance":4103,"Ever":4104,"uise":4105,"performs":4106,"illing":4107,"itz":4108,"ali":4109,"Ter":4110,"aircraft":4111,"Watches":4112,"tress":4113,"friendly":4114,"gallery":4115,"Fort":4116,"enes":4117,"aily":4118,"chool":4119,"village":4120,"bottom":4121,"utes":4122,"Dest":4123,"Landscaping":4124,"Ban":4125,"Note":4126,"sey":4127,"mel":4128,"Skin":4129,"Hong":4130,"ounge":4131,"exc":4132,"Clothes":4133,"Mont":4134,"iod":4135,"Guitar":4136,"Vinyl":4137,"Airport":4138,"file":4139,"theme":4140,"latest":4141,"clothes":4142,"Craft":4143,"atoes":4144,"Urban":4145,"raits":4146,"costume":4147,"ision":4148,"tips":4149,"Entry":4150,"Lim":4151,"iped":4152,"Mermaid":4153,"anda":4154,"bath":4155,"Secret":4156,"Photographer":4157,"attends":4158,"Seattle":4159,"Ram":4160,"represent":4161,"Pass":4162,"idence":4163,"crowd":4164,"Main":4165,"Know":4166,"Veget":4167,"deck":4168,"decoration":4169,"berries":4170,"gown":4171,"Create":4172,"anked":4173,"Fishing":4174,"pine":4175,"aks":4176,"nament":4177,"Jeans":4178,"bie":4179,"autumn":4180,"Trip":4181,"Harry":4182,"nail":4183,"Ess":4184,"ais":4185,"dance":4186,"Philipp":4187,"Pencil":4188,"Before":4189,"asure":4190,"games":4191,"tall":4192,"Victorian":4193,"opening":4194,"Tutorial":4195,"isco":4196,"arts":4197,"illustrations":4198,"Mas":4199,"Reading":4200,"burn":4201,"Number":4202,"ged":4203,"added":4204,"double":4205,"mobile":4206,"ocket":4207,"Pen":4208,"intern":4209,"imp":4210,"Personal":4211,"Contest":4212,"Educ":4213,"note":4214,"Asia":4215,"Looks":4216,"million":4217,"Pick":4218,"ication":4219,"Rail":4220,"rainbow":4221,"milk":4222,"Discover":4223,"pies":4224,"whole":4225,"success":4226,"aters":4227,"meeting":4228,"bes":4229,"corner":4230,"alo":4231,"ending":4232,"something":4233,"shoulder":4234,"fully":4235,"birds":4236,"37":4237,"doing":4238,"electric":4239,"ST":4240,"fo":4241,"Uk":4242,"diamond":4243,"quick":4244,"feet":4245,"cold":4246,"iven":4247,"Download":4248,"Guard":4249,"dogs":4250,"igra":4251,"ingredients":4252,"Times":4253,"Russian":4254,"shaped":4255,"largest":4256,"Fitness":4257,"Rome":4258,"father":4259,"ancient":4260,"acelet":4261,"oles":4262,"carpet":4263,"Blank":4264,"Womens":4265,"doc":4266,"Comple":4267,"empty":4268,"idden":4269,"rings":4270,"ailand":4271,"Van":4272,"oming":4273,"jew":4274,"iction":4275,"spot":4276,"quest":4277,"won":4278,"slo":4279,"Thailand":4280,"sure":4281,"kit":4282,"Into":4283,"andoned":4284,"Nursery":4285,"Lif":4286,"vision":4287,"via":4288,"Lou":4289,"Dev":4290,"section":4291,"Teen":4292,"Signs":4293,"def":4294,"finish":4295,"guitar":4296,"watercolor":4297,"Painted":4298,"Jok":4299,"une":4300,"Horses":4301,"below":4302,"Only":4303,"Friend":4304,"plat":4305,"oop":4306,"eless":4307,"Statue":4308,"words":4309,"urity":4310,"Motorcycle":4311,"late":4312,"production":4313,"Double":4314,"offers":4315,"BC":4316,"bank":4317,"Div":4318,"Marine":4319,"within":4320,"Quote":4321,"Jer":4322,"icycle":4323,"unge":4324,"Actress":4325,"Spider":4326,"conut":4327,"shopping":4328,"ads":4329,"exerc":4330,"esting":4331,"ecraft":4332,"Tre":4333,"Egg":4334,"Classroom":4335,"sat":4336,"enter":4337,"wrap":4338,"Found":4339,"hill":4340,"Other":4341,"Shows":4342,"onze":4343,"pull":4344,"length":4345,"Vacation":4346,"pretty":4347,"Vers":4348,"count":4349,"Budget":4350,"ture":4351,"Engagement":4352,"Oper":4353,"Mans":4354,"sauce":4355,"Bost":4356,"Racing":4357,"property":4358,"Display":4359,"Electric":4360,"getting":4361,"Dubai":4362,"Machine":4363,"Writing":4364,"six":4365,"Colour":4366,"Word":4367,"Boston":4368,"PS":4369,"ustry":4370,"resort":4371,"delicious":4372,"ald":4373,"since":4374,"mercial":4375,"angle":4376,"Events":4377,"Famous":4378,"Spanish":4379,"vo":4380,"Evening":4381,"mess":4382,"important":4383,"kind":4384,"example":4385,"uel":4386,"Bags":4387,"Ep":4388,"Baseball":4389,"Inst":4390,"OT":4391,"rite":4392,"cards":4393,"ura":4394,"Buildings":4395,"Pit":4396,"Mand":4397,"touch":4398,"Which":4399,"Mess":4400,"otic":4401,"toy":4402,"Screen":4403,"mond":4404,"riding":4405,"Gray":4406,"track":4407,"lamp":4408,"ites":4409,"ffic":4410,"Shoe":4411,"complete":4412,"Feb":4413,"Goth":4414,"several":4415,"lumin":4416,"blank":4417,"NE":4418,"PNG":4419,"Getty":4420,"vitation":4421,"Making":4422,"storage":4423,"uments":4424,"clipart":4425,"lower":4426,"dep":4427,"media":4428,"leeves":4429,"48":4430,"took":4431,"Pac":4432,"stay":4433,"pur":4434,"ilet":4435,"Sew":4436,"Ce":4437,"statue":4438,"rew":4439,"tower":4440,"Training":4441,"olution":4442,"Rad":4443,"shower":4444,"75":4445,"straw":4446,"cling":4447,"Models":4448,"aver":4449,"onda":4450,"Collect":4451,"Exper":4452,"Zeal":4453,"outique":4454,"bring":4455,"hog":4456,"pics":4457,"PA":4458,"ension":4459,"Pak":4460,"Dire":4461,"Pillow":4462,"iques":4463,"king":4464,"Trib":4465,"Minimal":4466,"Each":4467,"Zealand":4468,"Sail":4469,"walks":4470,"Bol":4471,"Barbie":4472,"needs":4473,"Basketball":4474,"earth":4475,"lets":4476,"Inspired":4477,"reception":4478,"Cour":4479,"relax":4480,"ately":4481,"yon":4482,"Right":4483,"aus":4484,"ks":4485,"overn":4486,"various":4487,"FL":4488,"verse":4489,"disc":4490,"Horror":4491,"rome":4492,"Butterfly":4493,"Journal":4494,"Male":4495,"Humor":4496,"FA":4497,"tie":4498,"Battle":4499,"jeans":4500,"boots":4501,"hem":4502,"angu":4503,"inary":4504,"Transp":4505,"99":4506,"Blog":4507,"aux":4508,"Age":4509,"skin":4510,"Russia":4511,"su":4512,"phabet":4513,"wich":4514,"Lamp":4515,"ottles":4516,"surrounded":4517,"eth":4518,"inem":4519,"element":4520,"ainless":4521,"worth":4522,"yr":4523,"fans":4524,"Santa":4525,"Keep":4526,"rad":4527,"canvas":4528,"fence":4529,"Francisco":4530,"leading":4531,"educ":4532,"gent":4533,"Backgrounds":4534,"ivals":4535,"Garage":4536,"tattoos":4537,"eggs":4538,"tries":4539,"arms":4540,"rice":4541,"Illustrations":4542,"dest":4543,"downtown":4544,"Was":4545,"Wind":4546,"mirror":4547,"Friends":4548,"Mount":4549,"Goo":4550,"information":4551,"Industrial":4552,"Avengers":4553,"mos":4554,"written":4555,"Att":4556,"seating":4557,"Mult":4558,"igraphy":4559,"bubble":4560,"scar":4561,"winning":4562,"Social":4563,"Crown":4564,"Earr":4565,"chain":4566,"34":4567,"Community":4568,"Many":4569,"served":4570,"Toky":4571,"Shut":4572,"ado":4573,"Mexican":4574,"broid":4575,"gym":4576,"program":4577,"sweater":4578,"ae":4579,"broidery":4580,"Aircraft":4581,"Sugar":4582,"idential":4583,"amel":4584,"inspiration":4585,"38":4586,"castle":4587,"Cotton":4588,"Mobile":4589,"CE":4590,"Cookies":4591,"Piece":4592,"Animation":4593,"Cel":4594,"Race":4595,"Press":4596,"annual":4597,"guide":4598,"Estate":4599,"branch":4600,"Tokyo":4601,"amples":4602,"Wolf":4603,"rail":4604,"Today":4605,"strong":4606,"erve":4607,"cos":4608,"ached":4609,"BM":4610,"copy":4611,"Skirt":4612,"Flash":4613,"grand":4614,"GO":4615,"andel":4616,"Creek":4617,"Sleep":4618,"Tee":4619,"Pakistan":4620,"Knight":4621,"Empire":4622,"iac":4623,"Yard":4624,"north":4625,"Oct":4626,"Beer":4627,"Name":4628,"onde":4629,"CO":4630,"Tropical":4631,"session":4632,"Bull":4633,"Cheap":4634,"log":4635,"Warr":4636,"aked":4637,"attract":4638,"Tank":4639,"thought":4640,"Clock":4641,"oven":4642,"buck":4643,"Tow":4644,"Detail":4645,"Has":4646,"Gym":4647,"ivery":4648,"Latest":4649,"diagram":4650,"pictured":4651,"Grow":4652,"goal":4653,"south":4654,"Fan":4655,"offic":4656,"Fireplace":4657,"celebrate":4658,"ability":4659,"Turn":4660,"clock":4661,"ears":4662,"done":4663,"Islands":4664,"common":4665,"Cartoons":4666,"ivil":4667,"bench":4668,"aim":4669,"iano":4670,"Diagram":4671,"Drinks":4672,"Bowl":4673,"Scotland":4674,"Enter":4675,"amil":4676,"streets":4677,"Romantic":4678,"wife":4679,"32":4680,"elect":4681,"mm":4682,"Throw":4683,"access":4684,"jum":4685,"500":4686,"ivid":4687,"decorated":4688,"mass":4689,"1920":4690,"Block":4691,"deep":4692,"website":4693,"christ":4694,"Rug":4695,"mouth":4696,"brell":4697,"Cou":4698,"Cape":4699,"Want":4700,"stairs":4701,"onderful":4702,"dev":4703,"Fi":4704,"rect":4705,"vacation":4706,"Viet":4707,"closed":4708,"sugar":4709,"Valentine":4710,"flight":4711,"ales":4712,"Walls":4713,"research":4714,"Lodge":4715,"Equ":4716,"ranked":4717,"igs":4718,"structure":4719,"District":4720,"Actor":4721,"ipped":4722,"Auto":4723,"signs":4724,"Denim":4725,"tub":4726,"Smart":4727,"future":4728,"Ros":4729,"anical":4730,"Cub":4731,"Pets":4732,"designer":4733,"yn":4734,"parts":4735,"counter":4736,"ells":4737,"anut":4738,"ening":4739,"stry":4740,"Alternate":4741,"acc":4742,"Academy":4743,"Construction":4744,"price":4745,"Cost":4746,"variety":4747,"Template":4748,"Tom":4749,"Tote":4750,"Theme":4751,"BA":4752,"Half":4753,"Date":4754,"stat":4755,"Chairs":4756,"Legend":4757,"historic":4758,"Designer":4759,"ella":4760,"tropical":4761,"lying":4762,"Philippines":4763,"beer":4764,"Medieval":4765,"tre":4766,"Through":4767,"growing":4768,"squ":4769,"ju":4770,"Ver":4771,"Palm":4772,"location":4773,"zil":4774,"Pants":4775,"Brick":4776,"figure":4777,"pencil":4778,"lighting":4779,"Nut":4780,"Beg":4781,"Products":4782,"Vegan":4783,"Coll":4784,"screenshot":4785,"Pix":4786,"Republic":4787,"basket":4788,"salad":4789,"Days":4790,"Add":4791,"gate":4792,"Carib":4793,"Cathedral":4794,"nice":4795,"scrip":4796,"Computer":4797,"Deck":4798,"Medical":4799,"soccer":4800,"Slide":4801,"Canadian":4802,"times":4803,"Shadow":4804,"idered":4805,"pain":4806,"sheet":4807,"champion":4808,"odel":4809,"current":4810,"York":4811,"ishes":4812,"itan":4813,"vegetables":4814,"cular":4815,"Monster":4816,"Heritage":4817,"Captain":4818,"fishing":4819,"Public":4820,"bby":4821,"Years":4822,"Thanks":4823,"Hands":4824,"Beast":4825,"clothing":4826,"rug":4827,"private":4828,"Official":4829,"Ire":4830,"article":4831,"39":4832,"lusive":4833,".'":4834,"Pin":4835,"ideos":4836,"vs":4837,"Shopping":4838,"Ireland":4839,"fan":4840,"exterior":4841,"Pacific":4842,"topped":4843,"quarter":4844,"Buck":4845,"gal":4846,"setting":4847,"Start":4848,"Buff":4849,"Exp":4850,"Framed":4851,"brush":4852,"teen":4853,"homes":4854,"timate":4855,"hole":4856,"medical":4857,"Cond":4858,"Wheel":4859,"Soccer":4860,"inners":4861,"itor":4862,"courtesy":4863,"overnment":4864,"course":4865,"Brazil":4866,"awai":4867,"bles":4868,"Manchester":4869,"Stylish":4870,"fine":4871,"ieve":4872,"Ob":4873,"Month":4874,"concrete":4875,"Inspirational":4876,"Far":4877,"Hou":4878,"opt":4879,"Actors":4880,"bourne":4881,"enger":4882,"Caribbean":4883,"social":4884,"third":4885,"details":4886,"Never":4887,"Cab":4888,"temporary":4889,"effect":4890,"become":4891,"dressed":4892,"sculpture":4893,"Parties":4894,"festival":4895,"link":4896,"OR":4897,"Bus":4898,"deer":4899,"Mart":4900,"Transform":4901,"Gen":4902,"plates":4903,"asp":4904,"bab":4905,"shadow":4906,"inj":4907,"(<":4908,"ornam":4909,"Vegas":4910,"cycles":4911,"Types":4912,"ool":4913,"ufact":4914,"Gro":4915,"why":4916,"Pine":4917,"performance":4918,"personal":4919,"centre":4920,"wel":4921,"Technology":4922,"Advertising":4923,"uzzle":4924,"Culture":4925,"placed":4926,"Desert":4927,"Fast":4928,"Trendy":4929,"experience":4930,"Universe":4931,"cro":4932,"Toyota":4933,"Eyes":4934,"aded":4935,"33":4936,"**":4937,"2009":4938,"Ladies":4939,"Medit":4940,"Elephant":4941,"Prov":4942,"Pages":4943,"Greece":4944,"ators":4945,"cus":4946,"Does":4947,"och":4948,"ilt":4949,"Deco":4950,"adv":4951,"Aerial":4952,"Father":4953,"collect":4954,"Senior":4955,"award":4956,"aign":4957,"Formal":4958,"direct":4959,"Behind":4960,"Houston":4961,"luten":4962,"Honda":4963,"ulation":4964,"Facts":4965,"Learning":4966,"ride":4967,"Spaces":4968,"anges":4969,"bey":4970,"Tie":4971,"Die":4972,"ssom":4973,"Think":4974,"following":4975,"energy":4976,"Planet":4977,"Clip":4978,"planet":4979,"nails":4980,"Court":4981,"47":4982,"Enjoy":4983,"Jeep":4984,"huge":4985,"Mc":4986,"technology":4987,"styl":4988,"hon":4989,"Dolls":4990,"military":4991,"spl":4992,"Very":4993,"aun":4994,"oration":4995,"hab":4996,"Gowns":4997,"imbing":4998,"urse":4999,"Tall":5000,"stron":5001,"crip":5002,"49":5003,"sofa":5004,"ellery":5005,"Salt":5006,"Adv":5007,"Irish":5008,"shirts":5009,"Treat":5010,"label":5011,"fireplace":5012,"Circle":5013,"Flooring":5014,"Suites":5015,"ng":5016,"christmas":5017,"div":5018,"Tar":5019,"ense":5020,"return":5021,"ields":5022,"happ":5023,"AR":5024,"until":5025,"sunny":5026,"Vehicles":5027,"Media":5028,"Dinosaur":5029,"Courtesy":5030,"isher":5031,"stylish":5032,"robe":5033,"desert":5034,"Zoo":5035,"isode":5036,"club":5037,"skirt":5038,"gradu":5039,"mid":5040,"icop":5041,"Dc":5042,"Plastic":5043,"Running":5044,"Minecraft":5045,"printed":5046,"uniform":5047,"ases":5048,"temple":5049,"Sold":5050,"Money":5051,"1st":5052,"Awesome":5053,"Wa":5054,"bury":5055,"tank":5056,"shoot":5057,"Unicorn":5058,"ador":5059,"rat":5060,"Themes":5061,"Education":5062,"ua":5063,"lemon":5064,"Weddings":5065,"ashing":5066,"aund":5067,"share":5068,"tee":5069,"ovation":5070,"seat":5071,"distance":5072,"Dinner":5073,"Autom":5074,"eding":5075,"Hip":5076,"minutes":5077,"Pic":5078,"plans":5079,"Popular":5080,"Environment":5081,"finished":5082,"patio":5083,"elegant":5084,"eter":5085,"ements":5086,"Lap":5087,"quo":5088,"Fre":5089,"meat":5090,"Pir":5091,"jun":5092,"Bank":5093,"major":5094,"graphics":5095,"tery":5096,"Rent":5097,"fight":5098,"Pors":5099,"neigh":5100,"Sewing":5101,"Photographic":5102,"Example":5103,"once":5104,"quotes":5105,"Using":5106,"iled":5107,"engu":5108,"Ceiling":5109,"extra":5110,"aling":5111,"oured":5112,"aly":5113,"gives":5114,"dry":5115,"Isl":5116,"Rap":5117,"wire":5118,"Budd":5119,"Earrings":5120,"Pad":5121,"sum":5122,"places":5123,"Porsche":5124,"Jackets":5125,"pography":5126,"aza":5127,"conf":5128,"Install":5129,"IN":5130,"Next":5131,"2nd":5132,"Camping":5133,"towards":5134,"Words":5135,"attend":5136,"Turkey":5137,"anged":5138,"Mater":5139,"function":5140,"Pics":5141,"Pendant":5142,"Mirror":5143,"separ":5144,"incre":5145,"events":5146,"Credit":5147,"Sweater":5148,"oda":5149,"weather":5150,"older":5151,"Celebrities":5152,"Bread":5153,"though":5154,"teacher":5155,"Different":5156,"ateg":5157,"enge":5158,"Once":5159,"uct":5160,"Dol":5161,"bay":5162,"environment":5163,"Private":5164,"smile":5165,"lettering":5166,"Try":5167,"burgh":5168,"sail":5169,"outline":5170,"Stay":5171,"east":5172,"offer":5173,"throw":5174,"ffiti":5175,"Eagle":5176,"emer":5177,"acht":5178,"Desserts":5179,"anguage":5180,"Historical":5181,"tal":5182,"arian":5183,"opper":5184,"Theater":5185,"Myth":5186,"due":5187,"leton":5188,"driving":5189,"hang":5190,"uce":5191,"igious":5192,"Iphone":5193,"enefits":5194,"Single":5195,"types":5196,"Pair":5197,"cost":5198,"eder":5199,"rustic":5200,"Dut":5201,"68":5202,"Type":5203,"development":5204,"solid":5205,"allenge":5206,"Should":5207,"Windows":5208,"DC":5209,"IT":5210,"Southern":5211,"characters":5212,"uters":5213,"Kid":5214,"Bec":5215,"balcony":5216,"speech":5217,"cookies":5218,"panel":5219,"Melbourne":5220,"often":5221,"crew":5222,"flies":5223,"drive":5224,"Brook":5225,"brella":5226,"ogue":5227,"cu":5228,"Fle":5229,"umbai":5230,"asted":5231,"possible":5232,"equipment":5233,"azon":5234,"Toddler":5235,"Interiors":5236,"endar":5237,"Stickers":5238,"kid":5239,"border":5240,"rought":5241,"remov":5242,"Hind":5243,"control":5244,"tele":5245,"Olympic":5246,"quote":5247,"Ultimate":5248,"redible":5249,"epper":5250,"awa":5251,"marble":5252,"isex":5253,"ning":5254,"Details":5255,"Sound":5256,"Ren":5257,"ache":5258,"Boutique":5259,"ofile":5260,"Miam":5261,"Fact":5262,"Glow":5263,"Mumbai":5264,"stack":5265,"Mur":5266,"SA":5267,"loons":5268,"Handmade":5269,"Surf":5270,"Miami":5271,"Delhi":5272,"aundry":5273,"might":5274,"rich":5275,"ules":5276,"dem":5277,"artwork":5278,"palm":5279,"2008":5280,"Ins":5281,"items":5282,"Wildlife":5283,"Cher":5284,"Wrap":5285,"han":5286,"Nice":5287,"Quest":5288,"cil":5289,"Straw":5290,"tables":5291,"Avenue":5292,"herd":5293,"coach":5294,"skull":5295,"55":5296,"trib":5297,"plies":5298,"19th":5299,"Tile":5300,"casual":5301,"Motiv":5302,"bouquet":5303,"dessert":5304,"exhibition":5305,"Lessons":5306,"weekend":5307,"feature":5308,"tainment":5309,"Beat":5310,"Its":5311,"prints":5312,"adel":5313,"transport":5314,"larger":5315,"Exc":5316,"Columb":5317,"particip":5318,"rear":5319,"Still":5320,"Layout":5321,"Sofa":5322,"general":5323,"AL":5324,"rical":5325,"focus":5326,"iple":5327,"Pizza":5328,"SE":5329,"spect":5330,"inations":5331,"Services":5332,"Five":5333,"ternoon":5334,"cutting":5335,"chitectural":5336,"olic":5337,"General":5338,"Merced":5339,"posing":5340,"patterns":5341,"Duck":5342,"agen":5343,"Preschool":5344,"Welcome":5345,"shine":5346,"waves":5347,"BMW":5348,"ris":5349,"ctic":5350,"presents":5351,"owder":5352,"imes":5353,"ya":5354,"active":5355,"law":5356,"Giant":5357,"Element":5358,"hospital":5359,"quarium":5360,"LO":5361,"Why":5362,"areas":5363,"Ta":5364,"Slo":5365,"Amazon":5366,"antern":5367,"Cinem":5368,"cloud":5369,"Pok":5370,"hit":5371,"ien":5372,"rd":5373,"Deep":5374,"Contin":5375,"Lost":5376,"Second":5377,"celebrates":5378,"kiss":5379,"stret":5380,"practice":5381,"provide":5382,"pond":5383,"included":5384,"accessories":5385,"owner":5386,"Championship":5387,"Job":5388,"urban":5389,"Emer":5390,"iment":5391,"umbl":5392,"trian":5393,"jar":5394,"lady":5395,"amboo":5396,"AM":5397,"fant":5398,"Idea":5399,"Final":5400,"annel":5401,"46":5402,"AT":5403,"bill":5404,"''.":5405,"ological":5406,"Contain":5407,"Hospital":5408,"iner":5409,"Award":5410,"atching":5411,"Hills":5412,"Say":5413,"greeting":5414,"lit":5415,"Py":5416,"Portraits":5417,"minimal":5418,"Sci":5419,"porate":5420,"staff":5421,"aic":5422,"Elect":5423,"Stitch":5424,"jour":5425,"Foods":5426,"Cheese":5427,"Cath":5428,"Lead":5429,"distressed":5430,"cue":5431,"ati":5432,"utur":5433,"talking":5434,"mascot":5435,"everything":5436,"points":5437,"Candy":5438,"crown":5439,"waiting":5440,"throughout":5441,"Annual":5442,"goes":5443,"Tro":5444,"eway":5445,"heavy":5446,"concert":5447,"micro":5448,"rocks":5449,"Korea":5450,"usual":5451,"sters":5452,"phia":5453,"recipes":5454,"Ways":5455,"quoise":5456,"NAS":5457,"kee":5458,"guard":5459,"Burn":5460,"Berlin":5461,"document":5462,"acts":5463,"Fur":5464,"Teacher":5465,"Student":5466,"azer":5467,"force":5468,"Mercedes":5469,"Ground":5470,"AN":5471,"lined":5472,"straight":5473,"ettes":5474,"Row":5475,"apest":5476,"Shutter":5477,"Sav":5478,"worn":5479,"Cave":5480,"usband":5481,"enna":5482,"Blu":5483,"olesale":5484,"Flying":5485,"song":5486,"Salad":5487,"central":5488,"Gate":5489,"ribbon":5490,"plays":5491,"Neon":5492,"Ref":5493,"Clean":5494,"icopter":5495,"fix":5496,"Suits":5497,"Album":5498,"spread":5499,"iate":5500,"Hob":5501,"Homemade":5502,"sets":5503,"opard":5504,"Leaf":5505,"aren":5506,"Pho":5507,"Help":5508,"parking":5509,"oking":5510,"iring":5511,"Ghost":5512,"decorative":5513,"Doctor":5514,"Seas":5515,"Covers":5516,"lobby":5517,"80s":5518,"sleeve":5519,"Cocktail":5520,"Law":5521,"include":5522,"pin":5523,"similar":5524,"Develop":5525,"Corner":5526,"Mass":5527,"Lam":5528,"Drive":5529,"wears":5530,"ude":5531,"Elements":5532,"steps":5533,"phones":5534,"Give":5535,"oose":5536,"ively":5537,"IS":5538,"Indoor":5539,"contemporary":5540,"came":5541,"commun":5542,"study":5543,"Put":5544,"Conn":5545,"Self":5546,"Sets":5547,"named":5548,"estic":5549,"Northern":5550,"Mode":5551,"yet":5552,"Access":5553,"Egyptian":5554,"Union":5555,"cording":5556,"unit":5557,"chem":5558,"balls":5559,"Dall":5560,"asty":5561,"ultural":5562,"horiz":5563,"Ko":5564,"Web":5565,"acon":5566,"selection":5567,"Robot":5568,"Venice":5569,"Vietnam":5570,"library":5571,"Unit":5572,"izing":5573,"Illustr":5574,"grade":5575,"brain":5576,"Pra":5577,"lots":5578,"dead":5579,"Form":5580,"Tiger":5581,"Glam":5582,"44":5583,"runs":5584,"pie":5585,"Win":5586,"button":5587,"Stage":5588,"odiac":5589,"services":5590,"Prot":5591,"Ink":5592,"save":5593,"Origin":5594,"Silk":5595,"Liver":5596,"Spot":5597,"cohol":5598,"Hotels":5599,"guests":5600,"ano":5601,"Sare":5602,"Gothic":5603,"Packaging":5604,"ources":5605,"almost":5606,"Motorcycles":5607,"Bracelet":5608,"Saint":5609,"aring":5610,"businessman":5611,"Britain":5612,"Sonic":5613,"Stat":5614,"cotton":5615,"exercise":5616,"Holy":5617,"olis":5618,"Opt":5619,"Fo":5620,"period":5621,"Squad":5622,"backyard":5623,"Whis":5624,"Research":5625,"mixed":5626,"Chevy":5627,"forward":5628,"ergy":5629,"ims":5630,"Death":5631,"comic":5632,"plus":5633,"Wheels":5634,"Prim":5635,"Chevro":5636,"Rare":5637,"enough":5638,"Suite":5639,"Christian":5640,"demon":5641,"entry":5642,"Vel":5643,"Department":5644,"Chevrolet":5645,"oodles":5646,"species":5647,"lown":5648,"rout":5649,"Pig":5650,"cellent":5651,"Id":5652,"geometric":5653,"clu":5654,"Recor":5655,"yoga":5656,"Chef":5657,"soup":5658,"Rena":5659,"stunning":5660,"Meet":5661,"Var":5662,"storm":5663,"aries":5664,"ogn":5665,"aps":5666,"news":5667,"Rab":5668,"dancing":5669,"65":5670,"lost":5671,"watching":5672,"Vi":5673,"Thai":5674,"pub":5675,"necklace":5676,"months":5677,"Weight":5678,"baseball":5679,"lion":5680,"scale":5681,"legs":5682,"Civil":5683,"idas":5684,"ounted":5685,"surf":5686,"data":5687,"ander":5688,"Early":5689,"smooth":5690,"Decorative":5691,"Daily":5692,"lor":5693,"illustrated":5694,"anches":5695,"pig":5696,"airport":5697,"Anniversary":5698,"uturistic":5699,"150":5700,"Ext":5701,"millions":5702,"stery":5703,"Maps":5704,"Swimming":5705,"Speed":5706,"Liber":5707,"Well":5708,"Witch":5709,"move":5710,"usp":5711,"speed":5712,"ummy":5713,"Canyon":5714,"woods":5715,"easily":5716,"beard":5717,"Dom":5718,"Worlds":5719,"tyard":5720,"capital":5721,"drinking":5722,"region":5723,"announ":5724,"finger":5725,"ita":5726,"toys":5727,"Arena":5728,"Dallas":5729,"Chain":5730,"While":5731,"Crazy":5732,"enjoying":5733,"Socks":5734,"antique":5735,"Quality":5736,"70s":5737,"Embroidery":5738,"Louis":5739,"asing":5740,"Product":5741,"bi":5742,"cou":5743,"competition":5744,"ership":5745,"Concert":5746,"shore":5747,"vi":5748,"guy":5749,"models":5750,"ronic":5751,"Pun":5752,"Eth":5753,"hours":5754,"Conceptual":5755,"Closeup":5756,"Kind":5757,"driver":5758,"Sims":5759,"ski":5760,"issance":5761,"rier":5762,"smartphone":5763,"Plat":5764,"given":5765,"aurants":5766,"hoodie":5767,"Google":5768,"lunch":5769,"ti":5770,"fortable":5771,"names":5772,"patient":5773,"era":5774,"meet":5775,"Jungle":5776,"mind":5777,"circa":5778,"advent":5779,"Catholic":5780,"Six":5781,"ouver":5782,"stead":5783,"Deer":5784,"Shutterstock":5785,"Ath":5786,"reme":5787,"enty":5788,"Ox":5789,"riage":5790,"slic":5791,"giant":5792,"professional":5793,"Their":5794,"aith":5795,"Ranch":5796,"Cruise":5797,"Plush":5798,"Sher":5799,"addition":5800,"tools":5801,"graphed":5802,"depic":5803,"nearby":5804,"gian":5805,"Concrete":5806,"entire":5807,"Crow":5808,"Tennis":5809,"fre":5810,"proof":5811,"Holding":5812,"ationship":5813,"Holidays":5814,"Philadel":5815,"Path":5816,"Sac":5817,"Shark":5818,"Ru":5819,"autom":5820,"Muscle":5821,"Used":5822,"spoon":5823,"vectors":5824,"Gradu":5825,"Philadelphia":5826,"aircase":5827,"Price":5828,"cocktail":5829,"Hanging":5830,"Plate":5831,"wave":5832,"Ot":5833,"som":5834,"allows":5835,"mine":5836,"sides":5837,"ances":5838,"undred":5839,"member":5840,"traffic":5841,"Teaching":5842,"stream":5843,"gn":5844,"Vanc":5845,"industry":5846,"tiny":5847,"Poses":5848,"Abandoned":5849,"Storm":5850,"Vancouver":5851,"cooking":5852,"____":5853,"Explore":5854,"enix":5855,"ahead":5856,"Host":5857,"Barcel":5858,"gorgeous":5859,"science":5860,"shelf":5861,"Study":5862,"featured":5863,"Chapter":5864,"Tops":5865,"ilton":5866,"Sch":5867,"Closet":5868,"LEGO":5869,"Musical":5870,"Ski":5871,"Ceramic":5872,"upper":5873,"Falls":5874,"Lob":5875,"roses":5876,"tops":5877,"Sum":5878,"cabinet":5879,"ams":5880,"Malays":5881,"carrying":5882,"tile":5883,"celebration":5884,"puppy":5885,"Express":5886,"ilities":5887,"uge":5888,"Ju":5889,"parents":5890,"42":5891,"Ok":5892,"Seven":5893,"Transport":5894,"Grass":5895,"Owl":5896,"Sunglasses":5897,"serving":5898,"blems":5899,"File":5900,"anced":5901,"During":5902,"Jum":5903,"Spl":5904,"oid":5905,"Own":5906,"ils":5907,"itical":5908,"ify":5909,"vely":5910,"Joker":5911,"Unisex":5912,"iser":5913,"pants":5914,"purch":5915,"antine":5916,"Quar":5917,"reads":5918,"pizza":5919,"crack":5920,"Rele":5921,"Cloud":5922,"ecut":5923,"Smiling":5924,"Lat":5925,"launch":5926,"learning":5927,"activity":5928,"Memorial":5929,"opened":5930,"Swed":5931,"intro":5932,"prep":5933,"atar":5934,"Minimalist":5935,"mock":5936,"robot":5937,"pec":5938,"ically":5939,"ontal":5940,"Assoc":5941,"sound":5942,"reve":5943,"Bedrooms":5944,"others":5945,"budget":5946,"projects":5947,"Eff":5948,"allic":5949,"wheels":5950,"gro":5951,"later":5952,"oma":5953,"vegan":5954,"Vehicle":5955,"flooring":5956,"ties":5957,"illy":5958,"sink":5959,"isting":5960,"Lounge":5961,"report":5962,"Clear":5963,"Cabinets":5964,"connect":5965,"started":5966,"god":5967,"Pers":5968,"vehicles":5969,"Come":5970,"abul":5971,"menu":5972,"complex":5973,"Portug":5974,"Symbols":5975,"Barcelona":5976,"author":5977,"oul":5978,"gency":5979,"Cherry":5980,"helmet":5981,"Bee":5982,"Op":5983,"ousands":5984,"Airl":5985,"Solar":5986,"Downtown":5987,"idents":5988,"Knee":5989,"Sheet":5990,"dragon":5991,"handmade":5992,"Uniform":5993,"defin":5994,"tutorial":5995,"unte":5996,"Scene":5997,"Audi":5998,"ened":5999,"Dem":6000,"sphere":6001,"Present":6002,"lovely":6003,"Heavy":6004,"court":6005,"rep":6006,"visible":6007,"Fight":6008,"selling":6009,"Wing":6010,"Mind":6011,"hig":6012,"tell":6013,"Micro":6014,"hammer":6015,"sleeping":6016,"Frozen":6017,"gun":6018,"wings":6019,"doesn":6020,"fest":6021,"blood":6022,"Graphics":6023,"Link":6024,"rames":6025,"Transformers":6026,"ither":6027,"golf":6028,"Kiss":6029,"went":6030,"museum":6031,"yer":6032,"Walt":6033,"hour":6034,"Chel":6035,"ila":6036,"Also":6037,"sunglasses":6038,"Complete":6039,"Puppies":6040,"CT":6041,"avour":6042,"aka":6043,"Artists":6044,"pit":6045,"sunrise":6046,"cats":6047,"1950":6048,"Ma":6049,"Rac":6050,"gather":6051,"Honey":6052,"1960":6053,"Carn":6054,"classroom":6055,"borhood":6056,"iced":6057,"sting":6058,"rael":6059,"broken":6060,"safety":6061,"Bring":6062,"motorcycle":6063,"Films":6064,"Better":6065,"Dodge":6066,"capt":6067,"irty":6068,"rare":6069,"Ken":6070,"letters":6071,"Shep":6072,"adise":6073,"keleton":6074,"senior":6075,"Iv":6076,"Dessert":6077,"marr":6078,"izard":6079,"Youth":6080,"actress":6081,"Brain":6082,"2007":6083,"vict":6084,"vention":6085,"aco":6086,"Pumpkin":6087,"Pearl":6088,"afari":6089,"Factory":6090,"stuff":6091,"mint":6092,"utions":6093,"Tools":6094,"Notebook":6095,"themed":6096,"garage":6097,"fair":6098,"Pub":6099,"hop":6100,"activities":6101,"paintings":6102,"NYC":6103,"ami":6104,"Boats":6105,"Ads":6106,"Businessman":6107,"tent":6108,"Porch":6109,"300":6110,"ilot":6111,"individ":6112,"Zel":6113,"ava":6114,"Cupcakes":6115,"Guys":6116,"Rib":6117,"lawn":6118,"Israel":6119,"Mural":6120,"Pond":6121,"cafe":6122,"Hedge":6123,"agne":6124,"sung":6125,"butterfly":6126,"Studios":6127,"Peace":6128,"Milk":6129,"tered":6130,">''":6131,"Remodel":6132,"Bollywood":6133,"Loft":6134,"reflect":6135,"symbols":6136,"Copy":6137,"Menu":6138,"Frog":6139,"Native":6140,"means":6141,"material":6142,"Sitting":6143,"Test":6144,"coll":6145,"Liverpool":6146,"Order":6147,"Pray":6148,"urt":6149,"homemade":6150,"singer":6151,"Beard":6152,"Marketing":6153,"lyn":6154,"posters":6155,"flavor":6156,"gress":6157,"77":6158,"worker":6159,"Lemon":6160,"pumpkin":6161,"laugh":6162,"enery":6163,"Nether":6164,"Change":6165,"GT":6166,"baking":6167,"played":6168,"anean":6169,"Shap":6170,"rink":6171,"ada":6172,"Arrivals":6173,"moment":6174,"tiles":6175,"romantic":6176,"vious":6177,"Episode":6178,"estate":6179,"Zelda":6180,"esthouse":6181,"blog":6182,"Playing":6183,"Atlanta":6184,"hearts":6185,"tray":6186,"ockey":6187,"icine":6188,"record":6189,"Sri":6190,"Cold":6191,"66":6192,"Prime":6193,"SU":6194,"Dancing":6195,"Names":6196,"select":6197,"education":6198,"Gas":6199,"Beij":6200,"Surv":6201,"igar":6202,"Ceremony":6203,"thers":6204,"Beijing":6205,"lers":6206,"materials":6207,"loaded":6208,"istant":6209,"Glitter":6210,"boxes":6211,"Quilt":6212,"conference":6213,"Energy":6214,"Blouse":6215,"berg":6216,"ighthouse":6217,"Stop":6218,"spaces":6219,"gear":6220,"Heroes":6221,"Feel":6222,"TM":6223,"itute":6224,"Marble":6225,"Camera":6226,"Recept":6227,"ba":6228,"provided":6229,"doctor":6230,"recently":6231,"edy":6232,"Thanksgiving":6233,"Bean":6234,"Stuffed":6235,"Cabinet":6236,"4th":6237,"rition":6238,"Contr":6239,"Label":6240,"issue":6241,"facade":6242,"Ank":6243,"cing":6244,"Basement":6245,"Figures":6246,"cam":6247,"Mustang":6248,"marks":6249,"flags":6250,"wanted":6251,"erranean":6252,"pton":6253,"boats":6254,"wore":6255,"backpack":6256,"villa":6257,"Phoenix":6258,"turned":6259,"Texture":6260,"alt":6261,"95":6262,"coloring":6263,"Professional":6264,"Monkey":6265,"unnel":6266,"Tag":6267,"190":6268,"Smile":6269,"tool":6270,"Organic":6271,"Superhero":6272,"yourself":6273,"3rd":6274,"Container":6275,"Tiles":6276,"Chan":6277,"workers":6278,"Mah":6279,"chic":6280,"LED":6281,"Tumbl":6282,"rama":6283,"factory":6284,"Clouds":6285,"cliff":6286,"imens":6287,"CC":6288,"gifts":6289,"Safety":6290,"alle":6291,"hest":6292,"Blood":6293,"cart":6294,"pillow":6295,"bee":6296,"dro":6297,"wan":6298,"famil":6299,"rapy":6300,"engra":6301,"result":6302,"download":6303,"izer":6304,"wait":6305,"government":6306,"ldog":6307,"rup":6308,"pay":6309,"prec":6310,"psy":6311,"Charm":6312,"Islamic":6313,"Infin":6314,"Hunting":6315,"Limited":6316,"Ferr":6317,"otive":6318,"manufact":6319,"celain":6320,"Bon":6321,"demonstr":6322,"agu":6323,"mont":6324,"Ster":6325,"prise":6326,"inny":6327,"fruits":6328,"cuit":6329,"eline":6330,"avender":6331,"aught":6332,"Tables":6333,"coconut":6334,"invest":6335,"decorations":6336,"Wholesale":6337,"ci":6338,"Ready":6339,"Lip":6340,"iconic":6341,"Ontar":6342,"ification":6343,"Samsung":6344,"Ontario":6345,"esc":6346,"coal":6347,"amas":6348,"meas":6349,"Knit":6350,"Rise":6351,"Renaissance":6352,"bull":6353,"choice":6354,"fold":6355,"rous":6356,"NASA":6357,"provides":6358,"furn":6359,"sion":6360,"balloon":6361,"Spiral":6362,"ington":6363,"Milan":6364,"limited":6365,"iage":6366,"Tul":6367,"afternoon":6368,"Broad":6369,"comm":6370,"Lu":6371,"oy":6372,"Tan":6373,"Rich":6374,"Soup":6375,"deal":6376,"Blanket":6377,"Thing":6378,"Netherlands":6379,"Icons":6380,"apt":6381,"bound":6382,"scription":6383,"Hon":6384,"hun":6385,"ustain":6386,"Track":6387,"ampire":6388,"esec":6389,"2000":6390,"denim":6391,"Childhood":6392,"ampunk":6393,"gin":6394,"portun":6395,"pical":6396,"angel":6397,"Lettering":6398,"Commercial":6399,"Ra":6400,"amon":6401,"moving":6402,"Rocks":6403,"awesome":6404,"Journey":6405,"jewelry":6406,"Soul":6407,"couch":6408,"edom":6409,"Mall":6410,"90s":6411,"stant":6412,"Near":6413,"Wire":6414,"Inclu":6415,"Wales":6416,"Property":6417,"Eat":6418,"ewhere":6419,"Peanut":6420,"Society":6421,"Puppy":6422,"aki":6423,"proper":6424,"vase":6425,"Jewellery":6426,"review":6427,"Struct":6428,"Diego":6429,"apart":6430,"spark":6431,"Sunrise":6432,"vitations":6433,"inches":6434,"Realistic":6435,"shapes":6436,"lives":6437,"sleeves":6438,"fat":6439,"Shelf":6440,"Cong":6441,"ladies":6442,"Warm":6443,"facing":6444,"gon":6445,"20th":6446,"Desktop":6447,"makeup":6448,"Riding":6449,"elephant":6450,"thick":6451,"Bill":6452,"ottish":6453,"Again":6454,"Rice":6455,"Shang":6456,"AFP":6457,"Hindu":6458,"Rh":6459,"Decal":6460,"meaning":6461,"someone":6462,"performing":6463,"Length":6464,"Songs":6465,"scenes":6466,"'',":6467,"Fancy":6468,"true":6469,"sid":6470,"leans":6471,"heat":6472,"tails":6473,"41":6474,"Tit":6475,"slice":6476,"Rat":6477,"Mic":6478,"True":6479,"prove":6480,"forms":6481,"pray":6482,"theast":6483,"mural":6484,"mug":6485,"iffon":6486,"ishing":6487,"Kings":6488,"Reception":6489,"Sad":6490,"stadium":6491,"Madrid":6492,"slow":6493,"aya":6494,"Entr":6495,"Planning":6496,"Hedgehog":6497,"decorating":6498,"esecake":6499,"rac":6500,"Fighter":6501,"Adult":6502,"needed":6503,"iquid":6504,"kok":6505,"parade":6506,"Bunny":6507,"smoke":6508,"choose":6509,"Relax":6510,"thin":6511,"pets":6512,"alone":6513,"mac":6514,"magic":6515,"unner":6516,"itcher":6517,"Cons":6518,"seven":6519,"actually":6520,"follow":6521,"rol":6522,"andelier":6523,"hered":6524,"ention":6525,"employ":6526,"Did":6527,"Basket":6528,"uggest":6529,"titled":6530,"industrial":6531,"Glasses":6532,"tag":6533,"Exhibition":6534,"introdu":6535,"2006":6536,"Attract":6537,"phys":6538,"everyone":6539,"bone":6540,"Rabbit":6541,"write":6542,"lished":6543,"Click":6544,"Mediterranean":6545,"acle":6546,"hemian":6547,"tor":6548,"branches":6549,"itzer":6550,"Memories":6551,"sole":6552,"delivery":6553,"Source":6554,"Outside":6555,"Chelsea":6556,"barn":6557,"Organization":6558,"Def":6559,"awk":6560,"Conf":6561,"Fal":6562,"bled":6563,"gly":6564,"awaii":6565,"fairy":6566,"raised":6567,"keys":6568,"dale":6569,"Management":6570,"inum":6571,"Pier":6572,"cription":6573,"Fest":6574,"adop":6575,"lusion":6576,"cases":6577,"wal":6578,"intend":6579,"ipper":6580,"Both":6581,"gles":6582,"combination":6583,"temper":6584,"Bah":6585,"Hiking":6586,"Flight":6587,"icated":6588,"Global":6589,"Polish":6590,"Scottish":6591,"colours":6592,"trying":6593,"Hop":6594,"atures":6595,"itation":6596,"bottles":6597,"Celebs":6598,"Lifestyle":6599,"ius":6600,"Boho":6601,"deliver":6602,"hairstyles":6603,"Program":6604,"Laptop":6605,"invitation":6606,"NC":6607,"Shorts":6608,"culture":6609,"elt":6610,"Styl":6611,"cable":6612,"Above":6613,"enguin":6614,"tons":6615,"Calligraphy":6616,"creating":6617,"Bug":6618,"objects":6619,"dig":6620,"foreground":6621,"tooth":6622,"Az":6623,"role":6624,"neon":6625,"labor":6626,"amed":6627,"Est":6628,"Preg":6629,"Bronze":6630,"related":6631,"Groom":6632,"Pregn":6633,"76":6634,"stones":6635,"Bell":6636,"Lank":6637,"shoe":6638,"chest":6639,"Wave":6640,"wreath":6641,"Moroc":6642,"ifference":6643,"floating":6644,"ulptures":6645,"arrives":6646,"rows":6647,"aled":6648,"striped":6649,"curtain":6650,"Fat":6651,"echan":6652,"Cock":6653,"Columbia":6654,"Wearing":6655,"magazine":6656,"waters":6657,"Cinema":6658,"Favorite":6659,"skyline":6660,"attan":6661,"altern":6662,"Chi":6663,"magn":6664,"crafts":6665,"Level":6666,"Champions":6667,"oms":6668,"Photoshop":6669,"Internet":6670,"Render":6671,"outdoors":6672,"height":6673,"Entrance":6674,"Eating":6675,"Belle":6676,"Dutch":6677,"fill":6678,"Indones":6679,"Math":6680,"Malaysia":6681,"Ike":6682,"Strawberry":6683,"anies":6684,"juice":6685,"Ride":6686,"sell":6687,"Historic":6688,"Common":6689,"utral":6690,"iker":6691,"43":6692,"Choose":6693,"Gun":6694,"claim":6695,"Lock":6696,"AC":6697,"hug":6698,"brid":6699,"terrace":6700,"aval":6701,"Diet":6702,"regular":6703,"otional":6704,"rum":6705,"Beds":6706,"NO":6707,"serve":6708,"Terrier":6709,"ried":6710,"Woods":6711,"Tot":6712,"backdrop":6713,"artists":6714,"Pant":6715,"onts":6716,"400":6717,"search":6718,"Talk":6719,"pointing":6720,"message":6721,"ancer":6722,"Aquarium":6723,"hai":6724,"Solid":6725,"battle":6726,"blur":6727,"enance":6728,"ID":6729,"Knitting":6730,"bage":6731,"ifying":6732,"broidered":6733,"Pie":6734,"porch":6735,"Premier":6736,"notes":6737,"ede":6738,"ME":6739,"sens":6740,"globe":6741,"speaks":6742,"Orch":6743,"Springs":6744,"sizes":6745,"Foundation":6746,"cris":6747,"edition":6748,"Ner":6749,"Typography":6750,"Faces":6751,"ndi":6752,"alphabet":6753,"Skate":6754,"Working":6755,"Geometric":6756,"stan":6757,"safe":6758,"Buffalo":6759,"Tex":6760,"Everything":6761,"honey":6762,"Footwear":6763,"district":6764,"Jes":6765,"layer":6766,"Horiz":6767,"Ballet":6768,"Chief":6769,"Chanel":6770,"tax":6771,"aintenance":6772,"silk":6773,"Kitchens":6774,"Actresses":6775,"rian":6776,"Command":6777,"Phys":6778,"trim":6779,"Graffiti":6780,"TX":6781,"hndi":6782,"gola":6783,"brides":6784,"Parts":6785,"icing":6786,"meadow":6787,"Reference":6788,"NFL":6789,"Ridge":6790,"Queens":6791,"Drop":6792,"trend":6793,"fantasy":6794,"Trailer":6795,"Bikes":6796,"credit":6797,"Stainless":6798,"una":6799,"ledge":6800,"Snake":6801,"Engineering":6802,"tein":6803,"Site":6804,"sad":6805,"bridal":6806,"Pain":6807,"feather":6808,"andom":6809,"inct":6810,"object":6811,"adding":6812,"cherry":6813,"horses":6814,"lifestyle":6815,"Mansion":6816,"bass":6817,"roit":6818,"chef":6819,"Cozy":6820,"boards":6821,"NBA":6822,"actus":6823,"MS":6824,"Printed":6825,"Pap":6826,"Drag":6827,"uth":6828,"outure":6829,"security":6830,"sequ":6831,"mir":6832,"houettes":6833,"Balloon":6834,"Bor":6835,"Bangkok":6836,"Items":6837,"waist":6838,"Somet":6839,"Built":6840,"Tours":6841,"Player":6842,"Lakes":6843,"abby":6844,"ecutive":6845,"formed":6846,"FC":6847,"wolf":6848,"vertical":6849,"Detroit":6850,"released":6851,"ctions":6852,"Winn":6853,"Kar":6854,"fil":6855,"Development":6856,"osing":6857,"het":6858,"umbrella":6859,"anime":6860,"fighter":6861,"Merry":6862,"Bicycle":6863,"Turtle":6864,"thentic":6865,"tennis":6866,"Then":6867,"',":6868,"Tutorials":6869,"hod":6870,"Grade":6871,"smiles":6872,"Eastern":6873,"formal":6874,"western":6875,"roud":6876,"SS":6877,"diy":6878,"chess":6879,"anniversary":6880,"andin":6881,"Shot":6882,"doodle":6883,"Gorgeous":6884,"max":6885,"Railway":6886,"undy":6887,"dough":6888,"saw":6889,"gre":6890,"gart":6891,"Local":6892,"jumping":6893,"surrounding":6894,"racing":6895,"installed":6896,"Twin":6897,"innamon":6898,"soil":6899,"Bake":6900,"bronze":6901,"mic":6902,"Range":6903,"peace":6904,"Got":6905,"husband":6906,"watches":6907,"engagement":6908,"cookie":6909,"fields":6910,"estone":6911,"charm":6912,"nuts":6913,"ggings":6914,"andinav":6915,"protest":6916,"Poly":6917,"nity":6918,"quarters":6919,"TO":6920,"aga":6921,"beside":6922,"Fil":6923,"Conference":6924,"udge":6925,"sel":6926,"rack":6927,"Trust":6928,"Trek":6929,"Championships":6930,"Ca":6931,"campaign":6932,"Cit":6933,"Gardening":6934,"Bali":6935,"Equipment":6936,"akery":6937,"Atlantic":6938,"SW":6939,"photographed":6940,"Rio":6941,"amount":6942,"belt":6943,"spirit":6944,"cities":6945,"Adidas":6946,"gran":6947,"iesel":6948,"Pastel":6949,"ramatic":6950,"tale":6951,"Corps":6952,"ousing":6953,"somewhere":6954,"88":6955,"oz":6956,"Cart":6957,"cub":6958,"Institute":6959,"01":6960,"tod":6961,"Being":6962,"college":6963,"avors":6964,"Angels":6965,"options":6966,"television":6967,"Cookie":6968,"term":6969,"DV":6970,"Border":6971,"surv":6972,"Banner":6973,"Happ":6974,">!":6975,"Success":6976,"Blonde":6977,"Cannes":6978,"cleaning":6979,"shelves":6980,"emic":6981,"championship":6982,"Feather":6983,"Wide":6984,"Dam":6985,"Lunch":6986,"Squadron":6987,"wonderful":6988,"Globe":6989,"Featuring":6990,"tourist":6991,"discuss":6992,"toilet":6993,"irm":6994,"Edge":6995,"neighborhood":6996,"occas":6997,"Magn":6998,"PC":6999,"stic":7000,"lounge":7001,"amin":7002,"pill":7003,"Shed":7004,"layout":7005,"Orleans":7006,"Athlet":7007,"Bi":7008,"shell":7009,"dust":7010,"Steampunk":7011,"Moscow":7012,"Experience":7013,"horn":7014,"waterfall":7015,"Hats":7016,"Branding":7017,"Flu":7018,"Handbags":7019,"Offic":7020,"Brooklyn":7021,"Lovely":7022,"farmhouse":7023,"18th":7024,"Bullet":7025,"Crew":7026,"stronaut":7027,"Gaming":7028,"tournament":7029,"campus":7030,"Shepherd":7031,"ushion":7032,"fund":7033,"Reuters":7034,"Originals":7035,"Getting":7036,"Gran":7037,"Strong":7038,"adder":7039,"ops":7040,"Roses":7041,"Comb":7042,"detailed":7043,"Cities":7044,"Laundry":7045,"bably":7046,"Evil":7047,"pod":7048,"Coral":7049,"fork":7050,"comfortable":7051,"Council":7052,"Doodle":7053,"Meat":7054,"wallpapers":7055,"sche":7056,"Banana":7057,"imag":7058,"Exerc":7059,"bedrooms":7060,"Intro":7061,"ilarious":7062,"Jord":7063,"Minister":7064,"cod":7065,"sized":7066,"Joh":7067,"Clay":7068,"Pokemon":7069,"Pa":7070,"iki":7071,"indoor":7072,"Velvet":7073,"Ikea":7074,"cep":7075,"Fiction":7076,"ancial":7077,"Doc":7078,"Arabic":7079,"Ward":7080,"Hockey":7081,"tul":7082,"onial":7083,"FILE":7084,"Stories":7085,"drinks":7086,"Collage":7087,"gers":7088,"Parade":7089,"rabbit":7090,"soon":7091,"overlooking":7092,"Fence":7093,"Sa":7094,"Shell":7095,"ictional":7096,"iraff":7097,"Members":7098,"international":7099,"floors":7100,"Plaza":7101,"Muslim":7102,"Mixed":7103,"Tele":7104,"fox":7105,"helps":7106,"compl":7107,"candy":7108,"drawings":7109,"Zodiac":7110,"shade":7111,"cheer":7112,"leads":7113,"aucas":7114,"Curtains":7115,"Reserve":7116,"Ships":7117,"handle":7118,"Would":7119,"kitchenette":7120,"bunk":7121,"Pocket":7122,"Stra":7123,"beige":7124,"yside":7125,"mist":7126,"Bands":7127,"total":7128,"cloth":7129,"Poo":7130,"susp":7131,"gardens":7132,"Entertainment":7133,"rig":7134,"oli":7135,"fordable":7136,"asting":7137,"growth":7138,"spire":7139,"burger":7140,"sneakers":7141,"Breeds":7142,"rets":7143,"chalk":7144,"eing":7145,"valley":7146,"Opera":7147,"Pav":7148,"climbing":7149,"85":7150,"comfort":7151,"ault":7152,"presentation":7153,"appeared":7154,"Bey":7155,"Colored":7156,"Too":7157,"Beatles":7158,"shots":7159,"posite":7160,"Boo":7161,"dressing":7162,"pressive":7163,"Empty":7164,"wet":7165,"Mint":7166,"Charl":7167,"Si":7168,"Hear":7169,"areness":7170,"Liberty":7171,"marine":7172,"enic":7173,"salt":7174,"Tent":7175,"VE":7176,"cano":7177,"Valentines":7178,"quite":7179,"Workout":7180,"hope":7181,"problem":7182,"seeds":7183,"afood":7184,"Paradise":7185,"Shape":7186,"Heaven":7187,"gi":7188,"Nap":7189,"Chip":7190,"upon":7191,"crop":7192,"Jet":7193,"expected":7194,"leave":7195,"dishes":7196,"font":7197,"Wings":7198,"cock":7199,"Saree":7200,"omic":7201,"rope":7202,"Return":7203,"beat":7204,"Commun":7205,"DA":7206,"mush":7207,"carved":7208,"loved":7209,"skills":7210,"Celebration":7211,"tens":7212,"parked":7213,"Scrip":7214,"prim":7215,"Elf":7216,"ffy":7217,"addle":7218,"Lines":7219,"source":7220,"brass":7221,"Leaves":7222,"aser":7223,"spac":7224,"mart":7225,"Standing":7226,"ibles":7227,"Hope":7228,"trophy":7229,"pocket":7230,"Coconut":7231,"matching":7232,"profile":7233,"alow":7234,"rousers":7235,"Dar":7236,"Tail":7237,"navy":7238,"Challenge":7239,"Stairs":7240,"plied":7241,"Fountain":7242,"starting":7243,"irrel":7244,"andinavian":7245,"sed":7246,"origin":7247,"least":7248,"assem":7249,"iance":7250,"Drum":7251,"Works":7252,"Invitation":7253,"sheep":7254,"cruise":7255,"tiger":7256,"cottage":7257,"Weird":7258,"2005":7259,"Futuristic":7260,"pective":7261,"ungalow":7262,"lip":7263,"phin":7264,"apolis":7265,"Shar":7266,"collar":7267,"depart":7268,"Chart":7269,"Maxi":7270,"ule":7271,"unky":7272,"edit":7273,"tablet":7274,"ibe":7275,"Seasons":7276,"Figur":7277,"already":7278,"Smooth":7279,"Lotus":7280,"vation":7281,"Nintend":7282,"diff":7283,"rones":7284,"adjust":7285,"onge":7286,"Nintendo":7287,"aerial":7288,"Sheep":7289,"CD":7290,"commercial":7291,"balloons":7292,"bars":7293,"Logos":7294,"hibit":7295,"Lane":7296,"Marina":7297,"either":7298,"Kun":7299,"Vampire":7300,"multiple":7301,"Ten":7302,"Kh":7303,"Vert":7304,"fitness":7305,"Compet":7306,"za":7307,"Om":7308,"visual":7309,"Architectural":7310,"Lanka":7311,"Aqu":7312,"Kill":7313,"outfits":7314,"recogn":7315,"item":7316,"powder":7317,"Mir":7318,"chitects":7319,"Standard":7320,"bly":7321,"Alphabet":7322,"iversity":7323,"Shoot":7324,"planning":7325,"lik":7326,"istance":7327,"volution":7328,"Ha":7329,"Outline":7330,"aws":7331,"Dublin":7332,"Switzer":7333,"Bis":7334,"interesting":7335,"Casino":7336,"Botanical":7337,"hock":7338,"Vegetable":7339,"Installation":7340,"value":7341,"guesthouse":7342,"gluten":7343,"Switzerland":7344,"Sterling":7345,"Dav":7346,"invol":7347,"director":7348,"scarf":7349,"stamp":7350,"ocado":7351,"panels":7352,"option":7353,"helicopter":7354,"icate":7355,"roy":7356,"Arctic":7357,"ificial":7358,"customer":7359,"covers":7360,"Universal":7361,"excellent":7362,"Numbers":7363,"Meal":7364,"Sir":7365,"78":7366,"ili":7367,"Finger":7368,"Psy":7369,"opportun":7370,"Exotic":7371,"Bathrooms":7372,"lift":7373,"pepper":7374,"Pickup":7375,"Iss":7376,"Letters":7377,"Accessory":7378,"SC":7379,"Prop":7380,"Examples":7381,"nest":7382,"Carnival":7383,"iolet":7384,"fog":7385,"Support":7386,"repair":7387,"Search":7388,"Available":7389,"Cupcake":7390,"Lobby":7391,"looked":7392,"Amster":7393,"Amsterdam":7394,"Jordan":7395,"column":7396,"iffel":7397,"solar":7398,"PH":7399,"Indep":7400,"swing":7401,"shut":7402,"pastel":7403,"daily":7404,"servation":7405,"Independ":7406,"earrings":7407,"Celtic":7408,"Superman":7409,"banana":7410,"Elementary":7411,"Brands":7412,"Shanghai":7413,"Aviation":7414,"Couture":7415,"cult":7416,"Grill":7417,"Sleeves":7418,"Portugal":7419,"aucasian":7420,"scapes":7421,"taining":7422,"completed":7423,"coln":7424,"Lincoln":7425,"Eiffel":7426,"attached":7427,"secret":7428,"ently":7429,"Bouquet":7430,"contra":7431,"Braids":7432,"udd":7433,"Without":7434,"Videos":7435,"gger":7436,"owl":7437,"64":7438,"advertising":7439,"Mun":7440,"Swiss":7441,"cade":7442,"Parks":7443,"Shipping":7444,"Niss":7445,"Grove":7446,"Boot":7447,"Lag":7448,"bold":7449,"according":7450,"cement":7451,"pear":7452,"2004":7453,"kins":7454,"standard":7455,"igr":7456,"certain":7457,"Olympics":7458,"spray":7459,"stretch":7460,"Mouse":7461,"baked":7462,"Snap":7463,"Leopard":7464,"Security":7465,"Hidden":7466,"Whole":7467,"busy":7468,"BB":7469,"Blazer":7470,"Graduation":7471,"Iran":7472,"ysis":7473,"fle":7474,"Volk":7475,"Woodworking":7476,"Snacks":7477,"Benefits":7478,"Benz":7479,"Wool":7480,"thinking":7481,"pendant":7482,"vertis":7483,"holidays":7484,"Pract":7485,"Pottery":7486,"Coastal":7487,"Yourself":7488,"Vir":7489,"tryside":7490,"sleev":7491,"Ginger":7492,"garten":7493,"taste":7494,"cci":7495,"depicting":7496,"Network":7497,"Quick":7498,"espec":7499,"ipping":7500,"platform":7501,"Fix":7502,"Tech":7503,"Safari":7504,"thr":7505,"protect":7506,"produce":7507,"especially":7508,"Calif":7509,"Tay":7510,"RI":7511,"Ted":7512,"reflection":7513,"Than":7514,"Jersey":7515,"royal":7516,"Supreme":7517,"Sar":7518,"Sche":7519,"achines":7520,"Volksw":7521,"Bottles":7522,"situ":7523,"Forces":7524,"cab":7525,"Dry":7526,"Shr":7527,"adventure":7528,"Er":7529,"crafted":7530,"Volkswagen":7531,"bicycle":7532,"uous":7533,"Brides":7534,"lon":7535,"Thank":7536,"oak":7537,"chop":7538,"Themed":7539,"pile":7540,"crossing":7541,"realistic":7542,"ceramic":7543,"Ident":7544,"Performance":7545,"Jazz":7546,"foods":7547,"Gucci":7548,"Beyond":7549,"Som":7550,"Rub":7551,"blonde":7552,"bing":7553,"Harley":7554,"orders":7555,"Going":7556,"Polar":7557,"Nissan":7558,"textured":7559,"biggest":7560,"eight":7561,"Cheer":7562,"DVD":7563,"Ferrari":7564,"poly":7565,"Pull":7566,"stainless":7567,"interest":7568,"bust":7569,"faces":7570,"teams":7571,"Visual":7572,"quer":7573,"officer":7574,"grou":7575,"oval":7576,"container":7577,"career":7578,"wool":7579,"ole":7580,"Stunning":7581,"ulated":7582,"Bedding":7583,"Gods":7584,"dollar":7585,"condu":7586,"candle":7587,"perial":7588,"ooter":7589,"Oxford":7590,"Rod":7591,"wrapped":7592,"linear":7593,"uxe":7594,"indergarten":7595,"tomatoes":7596,"Multi":7597,"MO":7598,"Underwater":7599,"usually":7600,"Olive":7601,"swim":7602,"album":7603,"Fitted":7604,"Ker":7605,"Upon":7606,"seas":7607,"ighters":7608,"melon":7609,"conc":7610,"pregn":7611,"Cricket":7612,"specific":7613,"Grunge":7614,"became":7615,"ko":7616,"Der":7617,"Extra":7618,"Candle":7619,"whis":7620,"Course":7621,"Meme":7622,"bought":7623,"VI":7624,"Rout":7625,"urious":7626,"jungle":7627,"png":7628,"prior":7629,"Kay":7630,"Major":7631,"Legends":7632,"struments":7633,"Piano":7634,"Skyline":7635,".)":7636,"Faux":7637,"Stones":7638,"cled":7639,"owned":7640,"newly":7641,"protection":7642,"installation":7643,"Control":7644,"ifth":7645,"figures":7646,"didn":7647,"Facebook":7648,"videos":7649,"trunk":7650,"calligraphy":7651,"Belt":7652,"abulous":7653,"Moment":7654,"Weekend":7655,"ramid":7656,"Always":7657,"brought":7658,"mouse":7659,"accent":7660,"Wonderful":7661,"ideal":7662,"aller":7663,"movies":7664,"Tool":7665,"CH":7666,"winner":7667,"Director":7668,"sav":7669,"wash":7670,"icure":7671,"Select":7672,"TI":7673,"spaper":7674,"Pur":7675,"Mehndi":7676,"nose":7677,"essential":7678,"death":7679,"Laugh":7680,"lies":7681,"Vans":7682,"Rang":7683,"Geo":7684,"Clu":7685,"athon":7686,"footage":7687,"relaxing":7688,"Hacks":7689,"deg":7690,"mean":7691,"gloves":7692,"Dome":7693,"Tumblr":7694,"vey":7695,"Manor":7696,"illumin":7697,"bun":7698,"mounted":7699,"kick":7700,"mud":7701,"Tribal":7702,"Yacht":7703,"Cowboy":7704,"Thrones":7705,"closet":7706,"asts":7707,"unes":7708,"rubber":7709,"``<":7710,"Chapel":7711,"piano":7712,"Goals":7713,"Waterfall":7714,"triangle":7715,"gary":7716,"ued":7717,"adult":7718,"cheap":7719,"heads":7720,"irates":7721,"recy":7722,"cabinets":7723,"Bars":7724,"RO":7725,"inic":7726,"rage":7727,"seed":7728,"ibrant":7729,"Religious":7730,"SO":7731,"Raj":7732,"SP":7733,"norm":7734,"descr":7735,"basic":7736,"Radio":7737,"Panel":7738,"Cad":7739,"Blossom":7740,"Born":7741,"Faith":7742,"Tube":7743,"statement":7744,"runway":7745,"Denver":7746,"breed":7747,"thumb":7748,"aints":7749,"isters":7750,"Capital":7751,"hills":7752,"Leban":7753,"glitter":7754,"Pixar":7755,"shark":7756,"families":7757,"Orient":7758,"Mission":7759,"Waves":7760,"ran":7761,"Trend":7762,"Division":7763,"arning":7764,"suite":7765,"Rugby":7766,"powered":7767,"organic":7768,"Patri":7769,"Touch":7770,"Converse":7771,"Destinations":7772,"complet":7773,"GA":7774,"WW":7775,"scient":7776,"Armor":7777,"Bench":7778,"Sleeping":7779,"slight":7780,"irtual":7781,"fountain":7782,"carbon":7783,"costumes":7784,"omes":7785,"Rescue":7786,"istry":7787,"carry":7788,"Button":7789,"Boxes":7790,"Costa":7791,"dock":7792,"Spark":7793,"framed":7794,"Weather":7795,"Incredible":7796,"snack":7797,"Thumb":7798,"vine":7799,"blossom":7800,"MC":7801,"pipe":7802,"Kits":7803,"alysis":7804,"Font":7805,"Growing":7806,"olia":7807,"produced":7808,"Scandinavian":7809,"Ax":7810,"trends":7811,"uitars":7812,"AD":7813,"pressure":7814,"sent":7815,"olin":7816,"dot":7817,"ben":7818,"Warrior":7819,"Away":7820,"trendy":7821,"gat":7822,"Process":7823,"Bohemian":7824,"otion":7825,"weeks":7826,"ornament":7827,"ridge":7828,"knit":7829,"separate":7830,"birth":7831,"dise":7832,"Highway":7833,"erole":7834,"asserole":7835,"Vine":7836,"virus":7837,"Peach":7838,"69":7839,"contains":7840,"aguar":7841,"Staff":7842,"exam":7843,"Cycling":7844,"igan":7845,"rubs":7846,"Wardrobe":7847,"loss":7848,"leader":7849,"alleng":7850,"ushed":7851,"leyball":7852,"Cleaning":7853,"Left":7854,"medium":7855,"itches":7856,"Write":7857,"icester":7858,"02":7859,"Sequ":7860,"emin":7861,"sex":7862,"aining":7863,"Manager":7864,"blanket":7865,"resting":7866,"tractor":7867,"econ":7868,"Vs":7869,"owners":7870,"Liter":7871,"miles":7872,"Lantern":7873,"jer":7874,"consider":7875,"Hang":7876,"visitors":7877,"southern":7878,"scrap":7879,"Copper":7880,"Lawn":7881,"elly":7882,"command":7883,"rays":7884,"airplane":7885,"Sacred":7886,"ogram":7887,"abandoned":7888,"Rolling":7889,"manager":7890,"roads":7891,"san":7892,"Mosque":7893,"Pure":7894,"istics":7895,"push":7896,"Norway":7897,"celebrating":7898,"52":7899,"uma":7900,"olk":7901,"Scary":7902,"67":7903,"dated":7904,"countries":7905,"Forum":7906,"wid":7907,"snake":7908,"shield":7909,"express":7910,"03":7911,"inth":7912,"beans":7913,"Dad":7914,"roid":7915,"Meaning":7916,"Association":7917,"presented":7918,"plain":7919,"alongside":7920,"northern":7921,"LD":7922,"vegetable":7923,"aru":7924,"Vogue":7925,"beef":7926,"ochrome":7927,"orable":7928,"Novel":7929,"Jackson":7930,"leman":7931,"Inch":7932,"expensive":7933,"III":7934,"actors":7935,"Import":7936,"chips":7937,"Wr":7938,"protective":7939,"Ped":7940,"bis":7941,"iar":7942,"Fer":7943,"ecess":7944,"Pirate":7945,"Pooh":7946,"Ash":7947,"sample":7948,"Revolution":7949,"Nat":7950,"stro":7951,"diet":7952,"Dreams":7953,"toward":7954,"longer":7955,"Decals":7956,"Goddess":7957,"filling":7958,"Boeing":7959,"forming":7960,"ilion":7961,"1990":7962,"Indonesia":7963,"duck":7964,"Warriors":7965,"Personalized":7966,"Balcony":7967,"Villas":7968,"Satin":7969,"shr":7970,"format":7971,"Brow":7972,"igion":7973,"umber":7974,"individual":7975,"global":7976,"grams":7977,"Abbey":7978,"movement":7979,"cepts":7980,"trailer":7981,"changes":7982,"punk":7983,"Winds":7984,"creamy":7985,"volunte":7986,"isn":7987,"pedest":7988,"smaller":7989,"Infinity":7990,"knee":7991,"Anton":7992,"compar":7993,"Meals":7994,"ications":7995,"angement":7996,"Aust":7997,"Simps":7998,"Vase":7999,"Tai":8000,"solution":8001,"treatment":8002,"ading":8003,"Daughter":8004,"Sword":8005,"Vertical":8006,"Um":8007,"layers":8008,"Alien":8009,"Resorts":8010,"jet":8011,"Arrow":8012,"Workshop":8013,"puzzle":8014,"Ornam":8015,"pasta":8016,"Illustrated":8017,"Slow":8018,"ustainable":8019,"lens":8020,"Between":8021,"princess":8022,"1930":8023,"Calendar":8024,"dad":8025,"Pitts":8026,"tomato":8027,"Sink":8028,"chant":8029,"Harbor":8030,"instead":8031,"placement":8032,"Airlines":8033,"undreds":8034,"rics":8035,"Helmet":8036,"reach":8037,"tone":8038,"usky":8039,"inscription":8040,"ibility":8041,"mosphere":8042,"appearance":8043,"Terrace":8044,"strap":8045,"Sym":8046,"proved":8047,"embr":8048,"edo":8049,"Ing":8050,"Frank":8051,"hockey":8052,"Luck":8053,"grunge":8054,"inte":8055,"iated":8056,"BE":8057,"typical":8058,"residential":8059,"frog":8060,"Language":8061,"allel":8062,"cave":8063,"liam":8064,"sym":8065,"angerous":8066,"narrow":8067,"05":8068,"Bass":8069,"bikes":8070,"Brush":8071,"Website":8072,"ulk":8073,"Princ":8074,"approx":8075,"reason":8076,"Argent":8077,"deter":8078,"Bou":8079,"etime":8080,"Had":8081,"flix":8082,"Netflix":8083,"warr":8084,"luck":8085,"nearly":8086,"monkey":8087,"Icel":8088,"iraffe":8089,"language":8090,"prepare":8091,"liament":8092,"posal":8093,"pav":8094,"Having":8095,"Leicester":8096,"hav":8097,"Upper":8098,"Mosaic":8099,"Iceland":8100,"laun":8101,"Raw":8102,"depend":8103,"anners":8104,"ere":8105,"retail":8106,"Sailing":8107,"stained":8108,"lution":8109,"Panda":8110,"ingers":8111,"seeing":8112,"Late":8113,"non":8114,"release":8115,"stell":8116,"musical":8117,"commod":8118,"Launch":8119,"Hur":8120,"pages":8121,"closeup":8122,"shops":8123,"kes":8124,"apons":8125,"tradition":8126,"beginning":8127,"masks":8128,"Hold":8129,"Beef":8130,"buff":8131,"wick":8132,"Canal":8133,"measure":8134,"Corporate":8135,"Sauce":8136,"Folk":8137,"ewalk":8138,"falling":8139,"'<":8140,"bin":8141,"apestry":8142,"reepy":8143,"Jokes":8144,"Ba":8145,"Puzzle":8146,"Rendering":8147,"native":8148,"Towel":8149,"Miniature":8150,"orous":8151,"composition":8152,"Tel":8153,"Justice":8154,"asis":8155,"thus":8156,"Steps":8157,"eer":8158,"08":8159,"Wonder":8160,"waving":8161,"itude":8162,"Channel":8163,"desktop":8164,"diffic":8165,"ito":8166,"Imag":8167,"brings":8168,"coin":8169,"opens":8170,"Fant":8171,"potatoes":8172,"iPad":8173,"connected":8174,"anna":8175,"Rear":8176,"Yorkshire":8177,"fume":8178,"favour":8179,"velvet":8180,"Imperial":8181,"Bamboo":8182,"Scenes":8183,"Edin":8184,"breath":8185,"Curly":8186,"scr":8187,"twist":8188,"Trian":8189,"zone":8190,"pole":8191,"Jesus":8192,"Stamp":8193,"Hole":8194,"asian":8195,"zing":8196,"Dishes":8197,"fried":8198,"09":8199,"sa":8200,"folk":8201,"Gluten":8202,"pred":8203,"previous":8204,"Lil":8205,"code":8206,"prop":8207,"pier":8208,"shades":8209,"Timber":8210,"Toilet":8211,"Adventures":8212,"Features":8213,"liter":8214,"refer":8215,"Nutrition":8216,"Cosmet":8217,"Designed":8218,"Alcohol":8219,"suitable":8220,"cuts":8221,"Baking":8222,"Jar":8223,"serious":8224,"Motivational":8225,"5th":8226,"catch":8227,"strawberry":8228,"customers":8229,"Ton":8230,"Could":8231,"Nurse":8232,"management":8233,"Rack":8234,"workshop":8235,"Taylor":8236,"Him":8237,"acrylic":8238,"construct":8239,"horizontal":8240,"Alex":8241,"Setting":8242,"REE":8243,"Lighthouse":8244,"Wreath":8245,"LI":8246,"borgh":8247,"Lamborgh":8248,"Guardians":8249,"newborn":8250,"Chiffon":8251,"Joy":8252,"Aff":8253,"Gem":8254,"Dra":8255,"Od":8256,"Edinburgh":8257,"Fictional":8258,"Taking":8259,"uted":8260,"Industry":8261,"Peak":8262,"Lt":8263,"imensions":8264,"Brass":8265,"Might":8266,"burning":8267,"Scale":8268,"Steam":8269,"li":8270,"pound":8271,"usal":8272,"Information":8273,"network":8274,"otten":8275,"structions":8276,"WA":8277,"600":8278,"lime":8279,"pump":8280,"rus":8281,"probably":8282,"Pieces":8283,"slope":8284,"79":8285,"Mi":8286,"Kunst":8287,"Beng":8288,"acelets":8289,"Lamborghini":8290,"chi":8291,"Mu":8292,"Mist":8293,"iders":8294,"sales":8295,"legend":8296,"Instant":8297,"currently":8298,"Players":8299,"bracelet":8300,"candles":8301,"jump":8302,"nown":8303,"unknown":8304,"weed":8305,"Cell":8306,"rors":8307,"icol":8308,"nation":8309,"Chalk":8310,"endor":8311,"sor":8312,"Eve":8313,"ancers":8314,"fourth":8315,"isure":8316,"rust":8317,"adults":8318,"ausage":8319,"athlet":8320,"Fans":8321,"knife":8322,"chart":8323,"Emirates":8324,"Opening":8325,"tures":8326,"Turk":8327,"ginger":8328,"vard":8329,"Stained":8330,"plica":8331,"aug":8332,"CB":8333,"edges":8334,"2003":8335,"dinosaur":8336,"Chest":8337,"attractive":8338,"residents":8339,"ibl":8340,"sewing":8341,"Shelves":8342,"Bu":8343,"GE":8344,"angular":8345,"Tourism":8346,"feeling":8347,"Exclusive":8348,"hidden":8349,"gans":8350,"asant":8351,"pret":8352,"Vac":8353,"ker":8354,"remove":8355,"Arte":8356,"Coach":8357,"Rot":8358,"Runway":8359,"profess":8360,"Athen":8361,"cord":8362,"particular":8363,"Teddy":8364,"Sens":8365,"itely":8366,"inv":8367,"Kawaii":8368,"insula":8369,"Mush":8370,"appears":8371,"Hilarious":8372,"Techniques":8373,"mons":8374,"shorts":8375,"ibly":8376,"isine":8377,"remember":8378,"1000":8379,"ockets":8380,"Edit":8381,"Gent":8382,"Outdoors":8383,"cha":8384,"waste":8385,"acular":8386,"packed":8387,"problems":8388,"casing":8389,"medieval":8390,"Horn":8391,"staircase":8392,"Burg":8393,"alog":8394,"Recy":8395,"bod":8396,"talks":8397,"Automobile":8398,"Deluxe":8399,"ji":8400,"Jama":8401,"Retri":8402,"TE":8403,"Tes":8404,"Guy":8405,"urses":8406,"tourists":8407,"Retail":8408,"laid":8409,"itial":8410,"calendar":8411,"drops":8412,"Invitations":8413,"discover":8414,"07":8415,"automatic":8416,"anes":8417,"ipal":8418,"believ":8419,"teeth":8420,"facility":8421,"ivacy":8422,"audience":8423,"neaker":8424,"Bron":8425,"questions":8426,"Airplane":8427,"grounds":8428,"Alps":8429,"scope":8430,"loye":8431,"ista":8432,"province":8433,"Thunder":8434,"eller":8435,"loyees":8436,"Eld":8437,"Interesting":8438,"ottages":8439,"orer":8440,"sharing":8441,"Austin":8442,"Residence":8443,"putting":8444,"Version":8445,"rador":8446,"x10":8447,"helping":8448,"courtyard":8449,"1950s":8450,"copper":8451,"received":8452,"flour":8453,"Fear":8454,"Overhead":8455,"Supplies":8456,"gery":8457,"rots":8458,"Saints":8459,"Modest":8460,"potato":8461,"furnished":8462,"lad":8463,"Potato":8464,"acier":8465,"removed":8466,"Broken":8467,"wish":8468,"offering":8469,"screw":8470,"olitan":8471,"question":8472,"Pergola":8473,"stanbul":8474,"Nep":8475,"Because":8476,"OF":8477,"va":8478,"KE":8479,"supplies":8480,"Harbour":8481,"Pirates":8482,"Lower":8483,"packaging":8484,":)":8485,"feeding":8486,"wildlife":8487,"auto":8488,"Drawn":8489,"cozy":8490,"Winnie":8491,"suff":8492,"Meeting":8493,"attack":8494,"Han":8495,"Cambridge":8496,"believe":8497,"habit":8498,"EPS":8499,"Match":8500,"Finding":8501,"Facade":8502,"Istanbul":8503,"chief":8504,"turquoise":8505,"Nest":8506,"Pride":8507,"fuel":8508,"04":8509,"rides":8510,"RA":8511,"oors":8512,"queen":8513,"usalem":8514,"Former":8515,"Luc":8516,"zer":8517,"sticks":8518,"Jerusalem":8519,"54":8520,"Bears":8521,"direction":8522,"Pale":8523,"engraving":8524,"Coin":8525,"Hook":8526,"Boss":8527,"pand":8528,"circular":8529,"Gala":8530,"tube":8531,"wise":8532,"pon":8533,"Thr":8534,"Maple":8535,"ugg":8536,"colourful":8537,"Pittsburgh":8538,"Mythology":8539,"coral":8540,"Singer":8541,"Prep":8542,"toddler":8543,"Turquoise":8544,"required":8545,"grown":8546,"aph":8547,"Together":8548,"abad":8549,"massive":8550,"acock":8551,"anas":8552,"Nash":8553,"ubbles":8554,"Polo":8555,"chap":8556,"tap":8557,"cit":8558,"highest":8559,"Lebanon":8560,"ghan":8561,"Climbing":8562,"Warhammer":8563,"Worth":8564,"explo":8565,"uts":8566,"Basic":8567,"Floating":8568,"nov":8569,"rom":8570,"vertible":8571,"Architects":8572,"keeping":8573,"Wash":8574,"expression":8575,"Rocky":8576,"mers":8577,"Maker":8578,"sandwich":8579,"examples":8580,"Ced":8581,"uffins":8582,"Dig":8583,"Lily":8584,"mens":8585,"ombie":8586,"Needs":8587,"laying":8588,"chure":8589,"veland":8590,"positive":8591,"NA":8592,"tsy":8593,"blocks":8594,"units":8595,"Pasta":8596,"Forever":8597,"distrib":8598,"hoe":8599,"ords":8600,"cups":8601,"changing":8602,"Discount":8603,"Cyber":8604,"Period":8605,"zoo":8606,"Meadow":8607,"aha":8608,"harvest":8609,"Foc":8610,"Antonio":8611,"'.":8612,"Penn":8613,"Etsy":8614,"Reasons":8615,"Peru":8616,"Makeover":8617,"ultimate":8618,"fighters":8619,"restaurants":8620,"illiant":8621,"Cater":8622,"drum":8623,"Cleveland":8624,"Bab":8625,"Sor":8626,"upcoming":8627,"Metro":8628,"Tax":8629,"Manh":8630,"soldier":8631,"completely":8632,"Document":8633,"pix":8634,"fighting":8635,"agles":8636,"):":8637,"yester":8638,"Swan":8639,"anned":8640,"warf":8641,"fra":8642,"neg":8643,"Defin":8644,"pale":8645,"SI":8646,"Mansions":8647,"Viking":8648,"ela":8649,"worked":8650,"bucket":8651,"portraits":8652,"Broadway":8653,"Straight":8654,"alum":8655,"Ky":8656,"Residential":8657,"Printing":8658,"journey":8659,"user":8660,"jack":8661,"06":8662,"UN":8663,"asc":8664,"Breath":8665,"sister":8666,"udding":8667,"cricket":8668,"56":8669,"hal":8670,"plenty":8671,"BO":8672,"Angry":8673,"battery":8674,"omber":8675,"nothing":8676,"renov":8677,"Glas":8678,"incredible":8679,"victory":8680,"usk":8681,"Circus":8682,"soldiers":8683,"Hulk":8684,"Gul":8685,"Stret":8686,"uffle":8687,"eagle":8688,"cooked":8689,"railway":8690,"x4":8691,"trucks":8692,"oviet":8693,"Tales":8694,"attention":8695,"cause":8696,"anything":8697,"Motivation":8698,"2001":8699,"adorable":8700,"Author":8701,"pure":8702,"John":8703,"Hab":8704,"Diesel":8705,"ickens":8706,"Duvet":8707,"purpose":8708,"Third":8709,"viewed":8710,"askets":8711,"zz":8712,"Friendly":8713,"welcome":8714,"require":8715,"kill":8716,"snowy":8717,"Bungalow":8718,"XL":8719,"patch":8720,"route":8721,"bamboo":8722,"laces":8723,"Templates":8724,"results":8725,"frozen":8726,"Bob":8727,"Swing":8728,"tles":8729,"emblem":8730,"Bros":8731,"began":8732,"Flyer":8733,"closure":8734,"Hilton":8735,"Remember":8736,"urai":8737,"lete":8738,"circles":8739,"rolls":8740,"blouse":8741,"mingham":8742,"Twist":8743,"Pakistani":8744,"peanut":8745,"Monsters":8746,"iper":8747,"balance":8748,"dra":8749,"signature":8750,"Whale":8751,"Duke":8752,"Jets":8753,"360":8754,"washing":8755,"thanks":8756,"ategory":8757,"Issue":8758,"autical":8759,"motiv":8760,"Coronavirus":8761,"Batt":8762,"MI":8763,"ursing":8764,"shipping":8765,"igami":8766,"Glen":8767,"Comes":8768,"Expensive":8769,"Leggings":8770,"Vest":8771,"creates":8772,"Cry":8773,"seats":8774,"Ly":8775,"Alb":8776,"successful":8777,"Birmingham":8778,"Prayer":8779,"wants":8780,"essay":8781,"topus":8782,"officials":8783,"ician":8784,"highway":8785,"additional":8786,"57":8787,"states":8788,"suits":8789,"hiking":8790,"monster":8791,"minimalist":8792,"stress":8793,"Ankle":8794,"59":8795,"Sweden":8796,"1960s":8797,"difficult":8798,"inated":8799,"ilight":8800,"impact":8801,"influ":8802,"Much":8803,"Ut":8804,"tire":8805,"elder":8806,"Freedom":8807,"Those":8808,"Questions":8809,"Tip":8810,"alg":8811,"collage":8812,"Manhattan":8813,"Austria":8814,"surpr":8815,"sac":8816,"sect":8817,"iances":8818,"Veter":8819,"migr":8820,"Officer":8821,"motion":8822,"Wat":8823,"folio":8824,"sleeved":8825,"benefits":8826,"audi":8827,"Dot":8828,"liquid":8829,"Pom":8830,"Sandals":8831,"answer":8832,"Midi":8833,"wheat":8834,"powerful":8835,"!)":8836,"Tub":8837,"bling":8838,"Emerald":8839,"Mam":8840,"chers":8841,"Eggs":8842,"phol":8843,"Skinny":8844,"Brothers":8845,"garlic":8846,"relationship":8847,"representing":8848,"slices":8849,"Monument":8850,"olive":8851,"caught":8852,"skate":8853,"58":8854,"ashes":8855,"Fantastic":8856,"1970s":8857,"american":8858,"considered":8859,"gave":8860,"oked":8861,"Appl":8862,"camping":8863,"Soldier":8864,"Record":8865,"Pel":8866,"sight":8867,"Buddha":8868,"forget":8869,"borough":8870,"leaving":8871,"angry":8872,"tape":8873,"ministr":8874,"Bless":8875,"myth":8876,"paired":8877,"stickers":8878,"dates":8879,"ented":8880,"Outlet":8881,"Magical":8882,"Maternity":8883,"LC":8884,"chip":8885,"Direct":8886,"radi":8887,"army":8888,"slide":8889,"iang":8890,"Marines":8891,"Brig":8892,"Beige":8893,"festive":8894,"otta":8895,"Ivory":8896,"imum":8897,"asters":8898,"itself":8899,"Sunflower":8900,"Portland":8901,"coloured":8902,"Shades":8903,"prices":8904,"Competition":8905,"Handsome":8906,"levels":8907,"ooper":8908,"Cancer":8909,"Sayings":8910,"Glamour":8911,"historical":8912,"Hal":8913,"Delivery":8914,"Creating":8915,"Vo":8916,"Choice":8917,"enced":8918,"Reveal":8919,"cash":8920,"Handwriting":8921,"perfectly":8922,"ipur":8923,"Essay":8924,"Metrop":8925,"changed":8926,"Isle":8927,"Devil":8928,"Moto":8929,"destination":8930,"Capt":8931,"Led":8932,"MP":8933,"lug":8934,"Essential":8935,"Pear":8936,"Against":8937,"Clown":8938,"nursery":8939,"Cru":8940,"illet":8941,"NJ":8942,"aqu":8943,"beyond":8944,"difference":8945,"Mandala":8946,"Hell":8947,"loves":8948,"sle":8949,"mitted":8950,"increase":8951,"51":8952,"married":8953,"developed":8954,"gow":8955,"matter":8956,"Mt":8957,"dramatic":8958,"OTO":8959,"atmosphere":8960,"Dish":8961,"rural":8962,"hardwood":8963,"assoc":8964,"Fonts":8965,"unicorn":8966,"Sony":8967,"hur":8968,"landing":8969,"ouring":8970,"Kenya":8971,"Bund":8972,"cage":8973,"cery":8974,"feed":8975,"Depot":8976,"package":8977,"Skeleton":8978,"ocaly":8979,"favourite":8980,"integr":8981,"Hav":8982,"apartments":8983,"Cedar":8984,"stor":8985,"ederal":8986,"eral":8987,"Linen":8988,"Vent":8989,"shared":8990,"else":8991,"bane":8992,"Blues":8993,"playground":8994,"eston":8995,"Sof":8996,"airo":8997,"turtle":8998,"buying":8999,"Gel":9000,"Bakery":9001,"Scarf":9002,"HO":9003,"Mean":9004,"atmeal":9005,"president":9006,"Arms":9007,"Cheesecake":9008,"preparing":9009,"Vanity":9010,"aca":9011,"printing":9012,"lantern":9013,"string":9014,"roots":9015,"Views":9016,"announced":9017,"Jam":9018,"Simpsons":9019,"Striped":9020,"addy":9021,"contrast":9022,"Dur":9023,"Reef":9024,"medal":9025,"Soviet":9026,"Tapestry":9027,"Porcelain":9028,"Drinking":9029,"exhibit":9030,"Smoke":9031,"Driving":9032,"wonder":9033,"PHOTO":9034,"glow":9035,"ante":9036,"Bridesmaid":9037,"visiting":9038,"Geek":9039,"Attractive":9040,"Escape":9041,"Shore":9042,"rate":9043,"vinyl":9044,"lovers":9045,"greet":9046,"nast":9047,"uals":9048,"sunlight":9049,"nap":9050,"Couples":9051,"Unusual":9052,"Poland":9053,"pedition":9054,"tunnel":9055,"adoptable":9056,"Burgundy":9057,"clay":9058,"Pools":9059,"Demon":9060,"Wil":9061,"quiet":9062,"keeps":9063,"encing":9064,"decorate":9065,"istol":9066,"shake":9067,"Alber":9068,"postcard":9069,"1940":9070,"Though":9071,"notebook":9072,"Pineapple":9073,"Baked":9074,"Heat":9075,"Makes":9076,"Guitars":9077,"Patch":9078,"audio":9079,"versation":9080,"Mrs":9081,"ani":9082,"bunny":9083,"dots":9084,"yacht":9085,"ongue":9086,"signed":9087,"icious":9088,"Bris":9089,"affect":9090,"Browse":9091,"mood":9092,"Taiwan":9093,"bake":9094,"Audio":9095,"percent":9096,"chance":9097,"Highland":9098,"indeer":9099,"Retreat":9100,"experi":9101,"Cash":9102,"Foto":9103,"frames":9104,"Westin":9105,"Teenage":9106,"Mars":9107,"Scenery":9108,"Windsor":9109,"resolution":9110,"aspberry":9111,"spin":9112,"mesh":9113,"usion":9114,"Matte":9115,"NEW":9116,"Wishes":9117,"minute":9118,"Drama":9119,"Gat":9120,"brother":9121,"Dy":9122,"tox":9123,"Dragons":9124,"BT":9125,"bug":9126,"umps":9127,"apping":9128,"Along":9129,"rod":9130,"Junior":9131,"Niger":9132,"restling":9133,"Disneyland":9134,"89":9135,"Countries":9136,"wrist":9137,"onders":9138,"netic":9139,"Bulldog":9140,"Es":9141,"Animated":9142,"headquarters":9143,"FREE":9144,"conditions":9145,"Bunk":9146,"antom":9147,"rolling":9148,"Really":9149,"keeper":9150,"Penguin":9151,"App":9152,"Gy":9153,"Whit":9154,"800":9155,"Sep":9156,"Mystery":9157,"Montreal":9158,"Wallet":9159,"heritage":9160,"Glasgow":9161,"mermaid":9162,"Marriage":9163,"prevent":9164,"Fu":9165,"Fund":9166,"Transportation":9167,"tight":9168,"Ethnic":9169,"Swim":9170,"Rivers":9171,"Merc":9172,"exact":9173,"Overcoat":9174,"HS":9175,"Couch":9176,"ollo":9177,"Tin":9178,"Lightweight":9179,"1970":9180,"click":9181,"qual":9182,"Raid":9183,"ima":9184,"eling":9185,"ogurt":9186,"Alone":9187,"Dollar":9188,"coli":9189,"189":9190,"infect":9191,"hosted":9192,"erved":9193,"hairstyle":9194,"lington":9195,"shares":9196,"icles":9197,"cloudy":9198,"Mood":9199,"boss":9200,"Hawai":9201,"250":9202,"AA":9203,"Jaguar":9204,"ruins":9205,"kitten":9206,"Newborn":9207,"sailing":9208,"Lex":9209,"rons":9210,"greatest":9211,"Turkish":9212,"Seoul":9213,"Ze":9214,"boot":9215,"Ebay":9216,"summit":9217,"Anch":9218,"Colours":9219,"disease":9220,"Wish":9221,"Covered":9222,"Pepper":9223,"Setup":9224,"fantastic":9225,"Davids":9226,"Seen":9227,"Nashville":9228,"tack":9229,"grain":9230,"6th":9231,"coastal":9232,"Aur":9233,"Thor":9234,"Trin":9235,"Guides":9236,"Jac":9237,"farmer":9238,"Ribbon":9239,"Oz":9240,"Pony":9241,"Scient":9242,"outer":9243,"crust":9244,"Spiritual":9245,"steam":9246,"graduation":9247,"Ol":9248,"Retriever":9249,"eman":9250,"Tourist":9251,"maids":9252,"shed":9253,"ocr":9254,"bits":9255,"documents":9256,"challenge":9257,"hetti":9258,"PD":9259,"rens":9260,"achel":9261,"Pand":9262,"premium":9263,"covering":9264,"felt":9265,"apples":9266,"Ornaments":9267,"Evolution":9268,"Sant":9269,"goods":9270,"aghetti":9271,"erness":9272,"Quarter":9273,"VA":9274,"boo":9275,"thousands":9276,"Loss":9277,"Parliament":9278,"53":9279,"Colonial":9280,"63":9281,"Shade":9282,"groups":9283,"Ask":9284,"Era":9285,"Vegetables":9286,"damage":9287,"101":9288,"Rolls":9289,"Lavender":9290,"brands":9291,"Hobbit":9292,"empt":9293,"proposed":9294,"issues":9295,"Cliff":9296,"coins":9297,"Sponge":9298,"azed":9299,"aisle":9300,"showcasing":9301,"Lightning":9302,"occasion":9303,"Wol":9304,"contest":9305,"Branch":9306,"mere":9307,"honor":9308,"anyone":9309,"breaking":9310,"sense":9311,"Dan":9312,"Campaign":9313,"mare":9314,"missing":9315,"belong":9316,"explore":9317,"portion":9318,"smoking":9319,"Cz":9320,"stit":9321,"Cutting":9322,"Ple":9323,"William":9324,"cannot":9325,"quis":9326,"unve":9327,"metallic":9328,"acting":9329,"ificant":9330,"crochet":9331,"Nord":9332,"seem":9333,"correct":9334,"DE":9335,"picnic":9336,"iro":9337,"systems":9338,"inja":9339,"Bour":9340,"whale":9341,"maker":9342,"Spect":9343,"raising":9344,"enh":9345,"Fleece":9346,"youth":9347,"Relationship":9348,"Ages":9349,"awks":9350,"Crossing":9351,"Medicine":9352,"dairy":9353,"info":9354,"adi":9355,"palette":9356,"Epic":9357,"Lyr":9358,"Flaming":9359,"harm":9360,"Introdu":9361,"Guil":9362,"Soap":9363,"glam":9364,"!''":9365,"Hawaiian":9366,"ccoli":9367,"Cove":9368,"laughing":9369,"Choosing":9370,"strument":9371,"Hearts":9372,"oca":9373,"arranged":9374,"Thousands":9375,"slightly":9376,"overall":9377,"device":9378,"memes":9379,"Titan":9380,"Champagne":9381,"BBQ":9382,"supermarket":9383,"Zip":9384,"Independence":9385,"wheelchair":9386,"Afghan":9387,"Destination":9388,"Boards":9389,"pork":9390,"bunch":9391,"Been":9392,"captured":9393,"trade":9394,"Sunshine":9395,"emergency":9396,"VC":9397,"Metallic":9398,"microphone":9399,"towel":9400,"ports":9401,"vy":9402,"Emergency":9403,"Dressed":9404,"ancakes":9405,"silhouettes":9406,"officers":9407,"Based":9408,"Ornament":9409,"hats":9410,"servatory":9411,"Camb":9412,"loose":9413,"represents":9414,"ably":9415,"Secrets":9416,"Coming":9417,"vanilla":9418,"Sculptures":9419,"Alternative":9420,"march":9421,"Davidson":9422,"organism":9423,"alcohol":9424,"allowed":9425,"reation":9426,"Pod":9427,"2002":9428,"Neigh":9429,"temperature":9430,"ategy":9431,"Reflection":9432,"Smith":9433,"journal":9434,"suggest":9435,"Invest":9436,"ossil":9437,"imed":9438,"Tus":9439,"ctuary":9440,"housing":9441,"figur":9442,"maple":9443,"ulations":9444,"elev":9445,"passenger":9446,"Nepal":9447,"bush":9448,"72":9449,"Mario":9450,"echanical":9451,"gain":9452,"writer":9453,"consum":9454,"socks":9455,"quickly":9456,"cigar":9457,"Gang":9458,"pad":9459,"Showing":9460,"Tun":9461,"passes":9462,"ushi":9463,"ND":9464,"halloween":9465,"effort":9466,"directly":9467,"bacon":9468,"Ray":9469,"Tournament":9470,"Restaurants":9471,"stitch":9472,"apph":9473,"Plane":9474,"Selling":9475,"MD":9476,"isdom":9477,"Jed":9478,"Mason":9479,"cancer":9480,"Collar":9481,"Crop":9482,"mechan":9483,"hook":9484,"Mascot":9485,"Claus":9486,"passing":9487,"Labrador":9488,"oramic":9489,"tou":9490,"effic":9491,"tch":9492,"prepared":9493,"depth":9494,"published":9495,"Sed":9496,"atives":9497,"edies":9498,"pitch":9499,"iveway":9500,"pite":9501,"ania":9502,"uba":9503,"Effect":9504,"arrive":9505,"planes":9506,"abo":9507,"application":9508,"sweat":9509,"diamonds":9510,"Sizes":9511,"Texts":9512,"Nob":9513,"carries":9514,"Fried":9515,"Convention":9516,"Decorate":9517,"compon":9518,"cardboard":9519,"holder":9520,"charge":9521,"Treats":9522,"Therapy":9523,"Marathon":9524,"venir":9525,"Join":9526,"bulb":9527,"fitted":9528,"spots":9529,"purchase":9530,"rocket":9531,"Rules":9532,"Profile":9533,"meme":9534,"kept":9535,"controll":9536,"improve":9537,"sometimes":9538,"Personalised":9539,"Courtyard":9540,"Cuba":9541,"Data":9542,"Xmas":9543,"pilot":9544,"riculture":9545,"Balloons":9546,"earlier":9547,"oldest":9548,"french":9549,"Dental":9550,"Yoda":9551,"Ey":9552,"Peters":9553,"conver":9554,"Phantom":9555,"assign":9556,"onsai":9557,"Perth":9558,"Oriental":9559,"fluffy":9560,"Kr":9561,"Maj":9562,"interview":9563,"Png":9564,"RT":9565,"iza":9566,"crazy":9567,"Pil":9568,"Bold":9569,"begin":9570,"loft":9571,"sprink":9572,"contour":9573,"Title":9574,"fisher":9575,"Survival":9576,"Avatar":9577,"Sem":9578,"linen":9579,"stores":9580,"root":9581,"rather":9582,"decided":9583,"supply":9584,"imately":9585,"herbs":9586,"Chem":9587,"bies":9588,"pillar":9589,"died":9590,"pregnant":9591,"Cambod":9592,"Ms":9593,"badge":9594,"tracks":9595,"soul":9596,"Riv":9597,"aro":9598,"conduct":9599,"dried":9600,"twin":9601,"Swift":9602,"ousand":9603,"respon":9604,"simply":9605,"artan":9606,"scra":9607,"Pas":9608,"partn":9609,"helped":9610,"Smoking":9611,"beaches":9612,"Truth":9613,"highly":9614,"Structure":9615,"multi":9616,"Peninsula":9617,"ned":9618,"quares":9619,"blurred":9620,"tan":9621,"eminine":9622,"Engra":9623,"Tale":9624,"neutral":9625,"Seafood":9626,"Seed":9627,"Shield":9628,"ennial":9629,"Orland":9630,"challeng":9631,"Brew":9632,"Athens":9633,"Goat":9634,"Figurine":9635,"opportunity":9636,"sive":9637,"Venue":9638,"UE":9639,"maintenance":9640,"Clar":9641,"Saudi":9642,"Teal":9643,"grill":9644,"Lyrics":9645,"igo":9646,"goat":9647,"Exercise":9648,"Puff":9649,"heim":9650,"Murals":9651,"RS":9652,"embroidery":9653,"solut":9654,"Accent":9655,"Oval":9656,"turns":9657,"Classical":9658,"Rum":9659,"eland":9660,"listening":9661,"Tang":9662,"vess":9663,"ml":9664,"Marri":9665,"Ka":9666,"strength":9667,"further":9668,"redient":9669,"galaxy":9670,"pandemic":9671,"Since":9672,"USS":9673,"Motel":9674,"platter":9675,"Plaid":9676,"ono":9677,"Lovers":9678,"calm":9679,"Kindergarten":9680,"orted":9681,"photographs":9682,"Croat":9683,"bob":9684,"Production":9685,"radio":9686,"Alberta":9687,"Frames":9688,"proud":9689,"Moda":9690,"organization":9691,"Cocktails":9692,"Primary":9693,"preschool":9694,"normal":9695,"Chandelier":9696,"Martin":9697,"remely":9698,"Basil":9699,"Thinking":9700,"palace":9701,"inate":9702,"Floors":9703,"Dye":9704,"vibrant":9705,"mant":9706,"sword":9707,"poke":9708,"seal":9709,"meets":9710,"Condition":9711,"Government":9712,"loaf":9713,"Photographs":9714,"likely":9715,"rental":9716,"Picnic":9717,"Jur":9718,"die":9719,"Beginners":9720,"stories":9721,"haired":9722,"Lions":9723,"Apollo":9724,"highlight":9725,"Everyone":9726,"selves":9727,"Juice":9728,"Orlando":9729,"Cola":9730,"generation":9731,"pse":9732,"17th":9733,"starts":9734,"Brisbane":9735,"asthan":9736,"stripes":9737,"IL":9738,"singing":9739,"overhead":9740,"ashed":9741,"pus":9742,"Pictured":9743,"Pregnancy":9744,"Nova":9745,"Shaped":9746,"Econ":9747,"ornaments":9748,"Dun":9749,"population":9750,"Sister":9751,"broad":9752,"boarding":9753,"Province":9754,"Pilot":9755,"Vegetarian":9756,"Bun":9757,"Stack":9758,"trav":9759,"Hostel":9760,"Brigade":9761,"Lis":9762,"Punk":9763,"Xbox":9764,"wardrobe":9765,"Code":9766,"hut":9767,"Whiskey":9768,"Ruins":9769,"Tell":9770,"mates":9771,"Executive":9772,"Assem":9773,"Blush":9774,"Cottages":9775,"nurse":9776,"Formula":9777,"Lamps":9778,"dirt":9779,"cupcakes":9780,"spotted":9781,"Hour":9782,"Plum":9783,"Beaches":9784,"Wife":9785,"fingers":9786,"creation":9787,"memor":9788,"orch":9789,"actions":9790,"ui":9791,"timber":9792,"Eagles":9793,"lah":9794,"clim":9795,"huah":9796,"Rajasthan":9797,"Elder":9798,"employees":9799,"stein":9800,"Incred":9801,"Nation":9802,"quil":9803,"Bones":9804,"exclusive":9805,"fancy":9806,"urb":9807,"uty":9808,"countryside":9809,"Delicious":9810,"gowns":9811,"Prag":9812,"puff":9813,"lane":9814,"rescent":9815,"codile":9816,"Advertis":9817,"companies":9818,"ylinder":9819,"hugging":9820,"spent":9821,"speaking":9822,"Them":9823,"architectural":9824,"gathered":9825,"kinds":9826,"avig":9827,"superhero":9828,"odka":9829,"respons":9830,"evil":9831,"typography":9832,"ometry":9833,"GI":9834,"adds":9835,"Interview":9836,"Husky":9837,"Belg":9838,"approach":9839,"Bristol":9840,"Ugly":9841,"cry":9842,"teaching":9843,"receive":9844,"Haun":9845,"ML":9846,"Section":9847,"odes":9848,"ificent":9849,"Kent":9850,"curr":9851,"Tib":9852,"internet":9853,"veter":9854,"Distressed":9855,"Nam":9856,"Pul":9857,"Message":9858,"rising":9859,"Bern":9860,"ulate":9861,"Powder":9862,"mets":9863,"curly":9864,"onia":9865,"Knights":9866,"Bottom":9867,"Scoop":9868,"vendor":9869,"Lipstick":9870,"Notes":9871,"adgets":9872,"chemical":9873,"Pavilion":9874,"apply":9875,"crying":9876,"gance":9877,"hung":9878,"Heights":9879,"sliced":9880,"120":9881,"target":9882,"Huge":9883,"ii":9884,"rh":9885,"Greatest":9886,"Virgin":9887,"spider":9888,"whose":9889,"entials":9890,"otions":9891,"Suede":9892,"NES":9893,"meals":9894,"remains":9895,"Cu":9896,"Henna":9897,"existing":9898,"Wy":9899,"Dressing":9900,"Calm":9901,"Boxing":9902,"Knot":9903,"glowing":9904,"blend":9905,"Fisher":9906,"Carbon":9907,"Manila":9908,"Salon":9909,"leaders":9910,"Hardwood":9911,",.":9912,"ordinary":9913,"Tac":9914,"financial":9915,"Celebrate":9916,"Delta":9917,"tel":9918,"Bengal":9919,"ibes":9920,"Manufact":9921,"oto":9922,"Sab":9923,"wr":9924,"whether":9925,"afr":9926,"trousers":9927,"universe":9928,"encou":9929,"avan":9930,"bark":9931,"told":9932,"Triangle":9933,"Dame":9934,"oustic":9935,"hear":9936,"Aurora":9937,"Marriott":9938,"hos":9939,"Landing":9940,"cinnamon":9941,"lil":9942,"impressive":9943,"elderly":9944,"Hut":9945,"Lev":9946,"Arsen":9947,"enefit":9948,"aboard":9949,"progress":9950,"schools":9951,"architect":9952,"Les":9953,"Roo":9954,"keyboard":9955,"Cooker":9956,"unusual":9957,"physical":9958,"fal":9959,"headphones":9960,"ippie":9961,"Snoo":9962,"laundry":9963,"Denmark":9964,"Announ":9965,"Wet":9966,"neath":9967,"Stan":9968,"joint":9969,"ees":9970,"Venues":9971,"spend":9972,"Adults":9973,"Dust":9974,"Vision":9975,"knot":9976,"join":9977,"except":9978,"Plain":9979,"Classy":9980,"azy":9981,"climate":9982,"Cable":9983,"fail":9984,"onion":9985,"content":9986,"saying":9987,"Auck":9988,"Auckland":9989,"Scout":9990,"Messages":9991,"ippers":9992,"Dorm":9993,"expect":9994,"Bubble":9995,"Marsh":9996,"Apocaly":9997,"seems":9998,"Cris":9999,"Complex":10000,"medicine":10001,"pineapple":10002,"Pose":10003,"Swedish":10004,"urer":10005,"Staircase":10006,"nine":10007,"Bone":10008,"Rocket":10009,"raise":10010,"Resid":10011,"Renovation":10012,"bones":10013,"employee":10014,"ternal":10015,"backgrounds":10016,"Almond":10017,"Capit":10018,"lod":10019,"Yummy":10020,"Positive":10021,"Motion":10022,"moved":10023,"atti":10024,"task":10025,"ework":10026,"Belgium":10027,"firm":10028,"mole":10029,"Attack":10030,"Zero":10031,"remodel":10032,"lifting":10033,"Mango":10034,"poor":10035,"aroo":10036,"puts":10037,"Prague":10038,"Pork":10039,"Syr":10040,"handsome":10041,"aurus":10042,"finally":10043,"inium":10044,"carn":10045,"motel":10046,"Creature":10047,"Geor":10048,"stacked":10049,"PE":10050,"ronics":10051,"spacious":10052,"lie":10053,"Morocco":10054,"urally":10055,"maintain":10056,"solutely":10057,"incor":10058,"Burger":10059,"Sandwich":10060,"Quilting":10061,"reck":10062,"Spice":10063,"uine":10064,"inating":10065,"fear":10066,"serves":10067,"graffiti":10068,"Focus":10069,"Holder":10070,"----":10071,"witch":10072,"Beet":10073,"1969":10074,"irie":10075,"textile":10076,"promo":10077,"Profess":10078,"peach":10079,"Romance":10080,"entertainment":10081,"Environmental":10082,"salmon":10083,"Burning":10084,"ingham":10085,"urance":10086,"Vacations":10087,"uki":10088,"spa":10089,"Comfort":10090,"Heel":10091,"Ideal":10092,"Buying":10093,"aque":10094,"Stencil":10095,"underwater":10096,"operations":10097,"Tooth":10098,"gesture":10099,"Summit":10100,"AE":10101,"apphire":10102,"stuffed":10103,"phants":10104,"displays":10105,",<":10106,"Jewish":10107,"huahua":10108,"Lun":10109,"dives":10110,"seek":10111,"Flags":10112,"Ni":10113,"cape":10114,"elled":10115,"dedicated":10116,"Fighting":10117,"til":10118,"landscaping":10119,"Awareness":10120,"Arsenal":10121,"Creepy":10122,"flowing":10123,"prof":10124,"Trim":10125,"Transparent":10126,"enders":10127,"orrow":10128,"lover":10129,"Offer":10130,"Soldiers":10131,"alternative":10132,"Lon":10133,"attered":10134,"Carl":10135,"Casa":10136,"quilt":10137,"lett":10138,"Uniforms":10139,"sidewalk":10140,"Bes":10141,"Oakland":10142,"Ultra":10143,"IC":10144,"Seating":10145,"independ":10146,"ostalg":10147,"Sus":10148,"Bucket":10149,"jersey":10150,"affordable":10151,"Corv":10152,"Czech":10153,"garn":10154,"Traffic":10155,"Chop":10156,"13th":10157,"combined":10158,"curtains":10159,"lid":10160,"Moving":10161,"satin":10162,"Hello":10163,"RC":10164,"Description":10165,"Umbrella":10166,"Racer":10167,"constructed":10168,"jam":10169,"candid":10170,"Rubber":10171,"cargo":10172,"Jewel":10173,"tip":10174,"Runner":10175,"relief":10176,"Asp":10177,"yards":10178,"Tig":10179,"brow":10180,"iable":10181,"Williams":10182,"inge":10183,"Zen":10184,"rescue":10185,"enguins":10186,"Bum":10187,"blogger":10188,"Streets":10189,"86":10190,"::":10191,"flash":10192,"Wrist":10193,"stals":10194,"drives":10195,"theater":10196,"prepares":10197,"Includes":10198,"nom":10199,"Tuscan":10200,"Sever":10201,"almond":10202,"estab":10203,"muscle":10204,"wards":10205,"jewellery":10206,"erous":10207,"offered":10208,"understand":10209,"1200":10210,"phistic":10211,"Snoopy":10212,"Taste":10213,"measures":10214,"marketing":10215,"Heels":10216,"themselves":10217,"rocky":10218,"flood":10219,"Oklah":10220,"Oklahoman":10221,"terr":10222,"cone":10223,"luxurious":10224,"Pay":10225,"avocado":10226,"zel":10227,"ivic":10228,"bucks":10229,"hunting":10230,"NSW":10231,"TN":10232,"Were":10233,"Repair":10234,"beads":10235,"Carry":10236,"Rever":10237,"Twilight":10238,"pearl":10239,"Sunny":10240,"Gulf":10241,"Eco":10242,"flex":10243,"Cham":10244,"Iconic":10245,"Loves":10246,"Roasted":10247,"Connect":10248,"Tesla":10249,"easier":10250,"workout":10251,"captain":10252,"7th":10253,"Strange":10254,"1900":10255,"spices":10256,"champagne":10257,"apped":10258,"strawberries":10259,"Bracelets":10260,"Chron":10261,"Hunter":10262,"necess":10263,"Bahamas":10264,"core":10265,"Embroidered":10266,"Yam":10267,"Thin":10268,"angles":10269,"etti":10270,"jab":10271,"Signature":10272,"grab":10273,"dreams":10274,"Rom":10275,"Fruits":10276,"etry":10277,"Parent":10278,"pir":10279,"friger":10280,"Combat":10281,"CEO":10282,"mall":10283,"Mugs":10284,"Nothing":10285,"Driver":10286,"Agency":10287,"Crit":10288,"oque":10289,"Ninja":10290,"Crest":10291,"lat":10292,"apon":10293,"comotive":10294,"Release":10295,"SL":10296,"shiny":10297,"scenery":10298,"posure":10299,"Meditation":10300,"peak":10301,"Systems":10302,"tender":10303,"ori":10304,"Diamonds":10305,"Walkthrough":10306,"Shapes":10307,"rally":10308,"ankle":10309,"risk":10310,"contract":10311,"cathedral":10312,"drawers":10313,"Landscapes":10314,"phr":10315,"joined":10316,"1500":10317,"Surface":10318,"sandy":10319,"arring":10320,"Follow":10321,"Jamaica":10322,"plum":10323,"seated":10324,"assic":10325,"Advice":10326,"significant":10327,"Birth":10328,"reasons":10329,"reef":10330,"average":10331,"script":10332,"chinese":10333,"ourmet":10334,"bowls":10335,"Enchant":10336,"NH":10337,"printable":10338,"Explorer":10339,"onions":10340,"Shaw":10341,"Largest":10342,"Zone":10343,"Wizard":10344,"pockets":10345,"atop":10346,"sour":10347,"Ark":10348,"cript":10349,"Biggest":10350,"shooting":10351,"horizon":10352,"Ri":10353,"Strap":10354,"roasted":10355,"eppers":10356,"knowledge":10357,"Parking":10358,"makeover":10359,"splash":10360,"wic":10361,"teddy":10362,"amar":10363,"Instruments":10364,"protein":10365,"containing":10366,"barrel":10367,"FO":10368,"Rept":10369,"skeleton":10370,"moves":10371,"Samurai":10372,"ladder":10373,"unks":10374,"uxedo":10375,"Hawk":10376,"hike":10377,"Appro":10378,"Sample":10379,"Trade":10380,"Rav":10381,"definitely":10382,"dip":10383,"orp":10384,"raine":10385,"religious":10386,"software":10387,"cells":10388,"parties":10389,"Woodland":10390,"Activity":10391,"Tradition":10392,"Skills":10393,"sterious":10394,"eva":10395,"client":10396,"YouTube":10397,"Joint":10398,"fy":10399,"velope":10400,"Presentation":10401,"podium":10402,"basement":10403,"ogy":10404,"mosque":10405,"renovation":10406,"wins":10407,"guys":10408,"Route":10409,"ANG":10410,"pens":10411,"Bugatti":10412,"Salmon":10413,"begins":10414,"continue":10415,"Quilts":10416,"hits":10417,"Location":10418,"Haven":10419,"Wagon":10420,"tones":10421,"Safe":10422,"Perfume":10423,"Cactus":10424,"aesthetic":10425,"Waterproof":10426,"Steak":10427,"Sneaker":10428,"arrangement":10429,"Cornwall":10430,"Ranger":10431,"alis":10432,"recomm":10433,"Sales":10434,"FE":10435,"Gather":10436,"miniature":10437,"Brid":10438,"awards":10439,"slim":10440,"ydro":10441,"parallel":10442,"4x4":10443,"leaning":10444,"Political":10445,"concern":10446,"isometric":10447,"Beaded":10448,"lining":10449,"sterling":10450,"feathers":10451,"reality":10452,"accommod":10453,"Argentina":10454,"umbs":10455,"Dairy":10456,"corporate":10457,"instructions":10458,"Falcon":10459,"Hen":10460,"kissing":10461,"ickets":10462,"IV":10463,"Buddhist":10464,"Android":10465,"ida":10466,"grid":10467,"psuit":10468,"ushions":10469,"hydr":10470,"zo":10471,"MG":10472,"Incredibles":10473,"polish":10474,",'":10475,"namic":10476,"faux":10477,"Feature":10478,"tes":10479,"potential":10480,"attended":10481,"illuminated":10482,"Tarot":10483,"Jurassic":10484,"mur":10485,"himself":10486,"Charcoal":10487,"Queensland":10488,"Pyramid":10489,"peal":10490,"boxing":10491,"Devon":10492,"dou":10493,"Prix":10494,"Jedi":10495,"ANGE":10496,"Sock":10497,"wealth":10498,"bler":10499,"bula":10500,"cules":10501,"Kim":10502,"soap":10503,"Total":10504,"oster":10505,"Bees":10506,"debut":10507,"timore":10508,"1999":10509,"Badge":10510,"mosaic":10511,"Matching":10512,"vac":10513,"Count":10514,"higher":10515,"62":10516,"Ware":10517,"Remove":10518,"Calgary":10519,"Various":10520,"acity":10521,"gone":10522,"brief":10523,"Tier":10524,"primary":10525,"Crowd":10526,"Hud":10527,"logos":10528,"Problem":10529,"TA":10530,"Baltimore":10531,"speaker":10532,"ellite":10533,"ovative":10534,"dome":10535,"vanity":10536,"fa":10537,"Trophy":10538,"department":10539,"Smoothie":10540,"Ltd":10541,">;":10542,"Mant":10543,"equal":10544,"Coca":10545,"Nas":10546,"exercises":10547,"painter":10548,"Maz":10549,"Pred":10550,"1980":10551,"Seal":10552,"alleries":10553,"Adjust":10554,"Hub":10555,"1996":10556,"Madison":10557,"Tibet":10558,"Cargo":10559,"Squirrel":10560,"launched":10561,"Ak":10562,"ups":10563,"Croatia":10564,"Dior":10565,"civil":10566,"switch":10567,"marked":10568,"Region":10569,"damaged":10570,"Skirts":10571,"Cosmetics":10572,"method":10573,"shelter":10574,"Taj":10575,"LES":10576,"mys":10577,"folding":10578,"continues":10579,"Cyberpunk":10580,"Oven":10581,"providing":10582,"Camel":10583,"cuits":10584,"Harvest":10585,"Hunt":10586,"Lives":10587,"mail":10588,"oufl":10589,"lamps":10590,"ja":10591,"authentic":10592,"Helicopter":10593,"offin":10594,"foam":10595,"tang":10596,"warrior":10597,"ladesh":10598,"Ukraine":10599,"resources":10600,"Across":10601,"falls":10602,"jac":10603,"tied":10604,"passion":10605,"regard":10606,"350":10607,"Spiderman":10608,"kay":10609,"ALL":10610,"Derby":10611,"magical":10612,"Cabins":10613,"easter":10614,"finding":10615,"turkey":10616,"advant":10617,"tex":10618,"caramel":10619,"Hipster":10620,"Whether":10621,"Wik":10622,"auna":10623,"Stream":10624,"exposed":10625,"Mayor":10626,"abrics":10627,"Wig":10628,"sheets":10629,"Duchess":10630,"Turbo":10631,"testing":10632,"scheme":10633,"performed":10634,"Comedy":10635,"thusi":10636,"union":10637,"motif":10638,"auction":10639,"everyday":10640,"expand":10641,"earm":10642,"indic":10643,"Signed":10644,"Tomb":10645,"oneym":10646,"Deal":10647,"Kual":10648,"Domin":10649,"Architect":10650,"Athletic":10651,"Lump":10652,"celebrated":10653,"ria":10654,"lips":10655,"Authentic":10656,"Same":10657,"nel":10658,"Filip":10659,"cop":10660,"amid":10661,"Report":10662,"selected":10663,"lavender":10664,"Software":10665,"rules":10666,"Term":10667,"Sometimes":10668,"nu":10669,"bulldog":10670,"Tap":10671,"indian":10672,"bloom":10673,"Moroccan":10674,"chandelier":10675,"aughters":10676,"Orchid":10677,"TC":10678,"embroidered":10679,"Cups":10680,"hell":10681,"Mud":10682,"Fill":10683,"Prec":10684,"Emblem":10685,"Latin":10686,"Kerala":10687,"distinct":10688,"holes":10689,"Willow":10690,"bio":10691,"spiral":10692,"Released":10693,"Bangladesh":10694,"FIFA":10695,"F1":10696,"Sit":10697,"8th":10698,"angaroo":10699,"negative":10700,"oting":10701,"ouflage":10702,"Hit":10703,"Weapons":10704,"Gypsy":10705,"Kuala":10706,"coon":10707,"1920s":10708,"astronaut":10709,"According":10710,"bu":10711,"pel":10712,"Exchange":10713,"curved":10714,"Bald":10715,"Goose":10716,"Rica":10717,"Memory":10718,"pollution":10719,"Laser":10720,"islands":10721,"igsaw":10722,"Gram":10723,"ampa":10724,"truly":10725,"novel":10726,"Something":10727,"remote":10728,"Antiques":10729,"bite":10730,"1968":10731,"Microsoft":10732,"mushrooms":10733,"Infant":10734,"ossip":10735,"dial":10736,"lotus":10737,"Brother":10738,"Panels":10739,"Nom":10740,"leopard":10741,"Highlands":10742,"contact":10743,"mixture":10744,"Share":10745,"Petersburg":10746,"forces":10747,"sandals":10748,"becomes":10749,"mate":10750,"igeon":10751,"brew":10752,"polar":10753,"marsh":10754,"Spy":10755,"residence":10756,"Farms":10757,"Dist":10758,"opposite":10759,"pil":10760,"loving":10761,"Metropolitan":10762,"Cambodia":10763,"foliage":10764,"escope":10765,"Aston":10766,"tasty":10767,"math":10768,"stair":10769,"scooter":10770,"Million":10771,"Maid":10772,"calcul":10773,"barr":10774,"nastics":10775,"Fog":10776,"Styling":10777,"Ingredients":10778,"Rag":10779,"usa":10780,"Kal":10781,"cater":10782,"uries":10783,"Regency":10784,"Capitol":10785,"Alumin":10786,"passengers":10787,"Cycle":10788,"marriage":10789,"Pouch":10790,"banners":10791,"parag":10792,"Brighton":10793,"911":10794,"uploaded":10795,"ationships":10796,"Tas":10797,"Mong":10798,"Mort":10799,"Presents":10800,"Carving":10801,"occup":10802,"visited":10803,"perspective":10804,"depict":10805,"Detailed":10806,"stove":10807,"babies":10808,"artificial":10809,"commission":10810,"pots":10811,"oneymoon":10812,"DAY":10813,"flakes":10814,"Adorable":10815,"asked":10816,"Mounted":10817,"Anchor":10818,"Rolex":10819,"16th":10820,"Friendship":10821,"Illumin":10822,"Jud":10823,"ament":10824,"carrier":10825,"traveling":10826,"Ort":10827,"dancer":10828,"pant":10829,"Suz":10830,"Cay":10831,"planned":10832,"Cha":10833,"71":10834,"labels":10835,"Zo":10836,"Shabby":10837,"orset":10838,"ometer":10839,"ared":10840,"ameter":10841,"claimed":10842,"Ell":10843,"Mile":10844,"cooker":10845,"gel":10846,"converse":10847,"Grain":10848,"avern":10849,"pul":10850,"pressed":10851,"Bit":10852,"Planets":10853,"Solutions":10854,"Remedies":10855,"quarterback":10856,"Ode":10857,"lived":10858,"shock":10859,"Horizontal":10860,"Target":10861,"Bomb":10862,"olds":10863,"domestic":10864,"thank":10865,"impression":10866,"Prepar":10867,"Statues":10868,"effects":10869,"contrib":10870,"Mandal":10871,"Happiness":10872,"wrong":10873,"700":10874,"affle":10875,"canal":10876,"Southeast":10877,"irement":10878,"comics":10879,"porcelain":10880,"oni":10881,"butterflies":10882,"Siber":10883,"degree":10884,"blackboard":10885,"adan":10886,"sare":10887,"lesson":10888,"phins":10889,"Dais":10890,"Sy":10891,"tier":10892,"Inspiring":10893,"teach":10894,"Kick":10895,"este":10896,"iop":10897,"prefer":10898,"!'":10899,"1998":10900,"Pug":10901,"anmar":10902,"Snack":10903,"Boyfriend":10904,"arrows":10905,"frosting":10906,"Beanie":10907,"tin":10908,"ilo":10909,"umpy":10910,"Hog":10911,"pitcher":10912,"Convertible":10913,"Switch":10914,"phib":10915,"Spots":10916,"Brunch":10917,"1980s":10918,"Castles":10919,"organized":10920,"anberry":10921,"ika":10922,"warning":10923,"Guests":10924,"fell":10925,"130":10926,"RV":10927,"Artistic":10928,"Ku":10929,"pillows":10930,"machines":10931,"actical":10932,"igence":10933,"Et":10934,"locations":10935,"Tomato":10936,"Zombie":10937,"Hudson":10938,"Bomber":10939,"sick":10940,"orient":10941,"tot":10942,"Random":10943,"CK":10944,"Hay":10945,"Antar":10946,"newspaper":10947,"underneath":10948,"Starbucks":10949,"Schools":10950,"memory":10951,"Arabia":10952,"Platform":10953,"Peanuts":10954,"Vit":10955,"cactus":10956,"Expedition":10957,"iumph":10958,"Speech":10959,"Trains":10960,"rounded":10961,"Moments":10962,"Lesson":10963,"Nerd":10964,"Ful":10965,"Commission":10966,"Lumpur":10967,"onic":10968,"Myanmar":10969,"Bever":10970,"Chess":10971,"educational":10972,"league":10973,"strip":10974,"ameras":10975,"styled":10976,"isk":10977,"Colomb":10978,"Seeds":10979,"ctors":10980,"Movement":10981,"receiving":10982,"styling":10983,"Rugs":10984,"ghost":10985,"Ble":10986,"send":10987,"Function":10988,"ester":10989,"dol":10990,"columns":10991,"anic":10992,"Asc":10993,"fitting":10994,"rider":10995,"orama":10996,"10th":10997,"Occas":10998,"Mesh":10999,"fi":11000,"musician":11001,"LOS":11002,"Surreal":11003,"split":11004,"ecoming":11005,"iera":11006,"Isometric":11007,"cushion":11008,"mort":11009,"Protein":11010,"builder":11011,"Adding":11012,"quarantine":11013,"Portable":11014,"striking":11015,"Lic":11016,"facilities":11017,"tongue":11018,"Glacier":11019,"carb":11020,"planting":11021,"hound":11022,"pent":11023,"ensure":11024,"Airman":11025,"african":11026,"Cushion":11027,"WI":11028,"Pregnant":11029,"fake":11030,"mostly":11031,"bubbles":11032,"classes":11033,"Haunted":11034,"Lime":11035,"OS":11036,"Leeds":11037,"invent":11038,"rainy":11039,"Displays":11040,"Warn":11041,"1984":11042,"recover":11043,"salon":11044,"Camo":11045,"angler":11046,"spectacular":11047,"erals":11048,"Abu":11049,"Ott":11050,"Cinder":11051,"Labor":11052,"Os":11053,"orious":11054,"Parents":11055,"patterned":11056,"Habit":11057,"Corvette":11058,"Sev":11059,"Welling":11060,"raps":11061,"-<":11062,"kne":11063,"rable":11064,"Astronaut":11065,"Masks":11066,"therapy":11067,"threat":11068,"cane":11069,"Suggest":11070,"artistic":11071,"Childrens":11072,"Towers":11073,"Wander":11074,"Workers":11075,"bt":11076,"clinic":11077,"Feet":11078,"Mail":11079,"lects":11080,"sites":11081,"Bloom":11082,"etah":11083,"anny":11084,"Budapest":11085,"gor":11086,"stroll":11087,"crossed":11088,"warehouse":11089,"rights":11090,"beams":11091,"avoid":11092,"heading":11093,"Educational":11094,"category":11095,"dens":11096,"Mes":11097,"Craftsman":11098,"Finish":11099,"azebo":11100,"uled":11101,"Supplied":11102,"Archive":11103,"Stretch":11104,"ANGELES":11105,"dangerous":11106,"turning":11107,"Oasis":11108,"Watching":11109,"partner":11110,"Featured":11111,"Robe":11112,"Pole":11113,"scoring":11114,"communication":11115,"phisticated":11116,"ilings":11117,"monument":11118,"demand":11119,"Bond":11120,"spicy":11121,"capture":11122,"princ":11123,"Role":11124,"Richmond":11125,"Cube":11126,"technique":11127,"Ramadan":11128,"Bacon":11129,"catching":11130,"rim":11131,"Collector":11132,"Session":11133,"booth":11134,"Companies":11135,"Exploring":11136,"Tags":11137,"heel":11138,"Academia":11139,"Bod":11140,"transfer":11141,"banks":11142,"1967":11143,"accents":11144,"Cult":11145,"Brazilian":11146,"Walnut":11147,"Thames":11148,"Democr":11149,"Fields":11150,"animation":11151,"cracker":11152,"98":11153,"Muscles":11154,"Gats":11155,"Gatsby":11156,"artz":11157,"arrived":11158,"Tourists":11159,"caucasian":11160,"Nights":11161,"Chry":11162,"Ottawa":11163,"Kenn":11164,"tech":11165,"graduate":11166,"Vienna":11167,"Ethiop":11168,"subject":11169,"Trump":11170,"Fake":11171,"roman":11172,"61":11173,"Triple":11174,"Identity":11175,"dating":11176,"annah":11177,"eastern":11178,"involved":11179,"UNES":11180,"tv":11181,"wali":11182,"designers":11183,"UNESCO":11184,"Panama":11185,"Tampa":11186,"Lang":11187,"bathrooms":11188,"Gender":11189,"plaid":11190,"connection":11191,"Pixel":11192,"beneath":11193,"Harr":11194,"Treasure":11195,"Wellington":11196,"Caramel":11197,"Playground":11198,"liner":11199,"Regional":11200,"74":11201,"mile":11202,"Spin":11203,"patients":11204,"trails":11205,"aukee":11206,"Rental":11207,"accept":11208,"extremely":11209,"gloss":11210,"Lift":11211,"Nick":11212,"achiev":11213,"rev":11214,"chel":11215,"Nightmare":11216,"1995":11217,"Voice":11218,"asures":11219,"lodge":11220,"batt":11221,"pointed":11222,"stronomy":11223,"Several":11224,"identity":11225,"Darkness":11226,"conven":11227,"rectangular":11228,"Split":11229,"dimensions":11230,"sunshine":11231,"ussels":11232,"Folding":11233,"Mushroom":11234,"Naval":11235,"Nautical":11236,"PVC":11237,"Stranger":11238,"73":11239,"dirty":11240,"fiber":11241,"minster":11242,"Question":11243,"Among":11244,"crane":11245,"valent":11246,"Tal":11247,"olkata":11248,"Harm":11249,"astery":11250,"Legacy":11251,"moist":11252,"Cairo":11253,"showed":11254,"pulled":11255,"Munich":11256,"tos":11257,"episode":11258,"stellation":11259,"Giving":11260,"Grilled":11261,"wiches":11262,"oku":11263,"goals":11264,"Chen":11265,"hallway":11266,"originally":11267,"Sands":11268,"trick":11269,"Sailor":11270,"outube":11271,"Hamilton":11272,"engineering":11273,"shining":11274,"volume":11275,"Scenic":11276,"Barrel":11277,"Dal":11278,"Resources":11279,"tried":11280,"compan":11281,"Tu":11282,"Campus":11283,"los":11284,"inf":11285,"Plates":11286,"posted":11287,"Tribune":11288,"Colourful":11289,"lation":11290,"Pallet":11291,"Cultural":11292,"woven":11293,"Fame":11294,"Religion":11295,"Cigar":11296,"cowboy":11297,"respond":11298,"Lum":11299,"Cob":11300,"Snowman":11301,"exist":11302,"Leisure":11303,"sliding":11304,"Magnolia":11305,"chat":11306,"outbreak":11307,"izen":11308,"manicure":11309,"rell":11310,"Sliding":11311,"uddle":11312,"Burberry":11313,"Origami":11314,"Ritz":11315,"gem":11316,"Duty":11317,"boutique":11318,"OU":11319,"trains":11320,"Lens":11321,"Holland":11322,"charming":11323,"iva":11324,"iw":11325,"cosmet":11326,"blowing":11327,"reduce":11328,"1965":11329,"excited":11330,"folded":11331,"Rally":11332,"acles":11333,"fined":11334,"jobs":11335,"surprise":11336,"sketches":11337,"Greet":11338,"dlers":11339,"reens":11340,"Mis":11341,"condo":11342,"________":11343,"angements":11344,"arta":11345,"asking":11346,"breast":11347,"structures":11348,"Bugs":11349,"cupcake":11350,"attraction":11351,"Cooper":11352,"Syn":11353,"fabulous":11354,"Stair":11355,"fallen":11356,"facts":11357,"cycling":11358,"Ore":11359,"voice":11360,"Nursing":11361,"ulif":11362,"Peacock":11363,"1966":11364,"buttons":11365,"Kolkata":11366,"sharp":11367,"emble":11368,"becue":11369,"Chihuahua":11370,"Simply":11371,"alien":11372,"fries":11373,"bears":11374,"Bonsai":11375,"Neutral":11376,"Compass":11377,"Islam":11378,"Hem":11379,"pc":11380,"inspire":11381,"lose":11382,"1997":11383,"Excellent":11384,"shoulders":11385,"political":11386,"repeat":11387,"uliflower":11388,"restored":11389,"1975":11390,"Tasman":11391,"Danish":11392,"Outer":11393,"Crack":11394,"weigh":11395,"Value":11396,"BR":11397,"noodles":11398,"Nations":11399,"bare":11400,"Eight":11401,"blow":11402,"Sid":11403,"ceans":11404,"films":11405,"Tractor":11406,"ramids":11407,"casserole":11408,"appet":11409,"dolls":11410,"Esp":11411,"mansion":11412,"stylized":11413,"Sustainable":11414,"inspirational":11415,"Pump":11416,"amen":11417,"coats":11418,"ridor":11419,"Ado":11420,"Wonders":11421,"Buffet":11422,"km":11423,"aced":11424,"Ga":11425,"adorn":11426,"agonal":11427,"Filipino":11428,"21st":11429,"beautifully":11430,"abs":11431,"undai":11432,"parent":11433,"Hyundai":11434,"Roller":11435,"effective":11436,"Lots":11437,"Lucky":11438,"1989":11439,"toe":11440,"Slip":11441,"!!!":11442,"Practice":11443,"unners":11444,"phis":11445,"exotic":11446,"Worst":11447,"delicate":11448,"Continental":11449,"Statement":11450,"pha":11451,"Chester":11452,"motherboard":11453,"peek":11454,"angered":11455,"Passion":11456,"coord":11457,"Archives":11458,"mega":11459,"Disc":11460,"Blueberry":11461,"caused":11462,"Civic":11463,"ioneer":11464,"mented":11465,"Notre":11466,"Candles":11467,"Sel":11468,"chestra":11469,"Congress":11470,"hangs":11471,"Gor":11472,"akh":11473,"mittee":11474,"seg":11475,"ooky":11476,"transportation":11477,"faith":11478,"waukee":11479,"refresh":11480,"50th":11481,"blooming":11482,"Merch":11483,"hagen":11484,"Nine":11485,"Portfolio":11486,"84":11487,"analysis":11488,"Maldives":11489,"destroy":11490,"euro":11491,"atile":11492,"Stores":11493,"Chile":11494,"Camper":11495,"havior":11496,"Gh":11497,"IA":11498,"Raven":11499,"cester":11500,"Insur":11501,"Introduction":11502,"Cinnamon":11503,"monochrome":11504,"Illustrator":11505,"Copen":11506,"Himal":11507,"Hug":11508,"Hamp":11509,"Selection":11510,"modified":11511,"pulling":11512,"layered":11513,"expert":11514,"Kitty":11515,"prayer":11516,"Defense":11517,"teenage":11518,"drama":11519,"reeze":11520,"mixing":11521,"Waiting":11522,"agers":11523,"andelion":11524,"whipped":11525,"laboration":11526,"Bulgar":11527,"useful":11528,"Copenhagen":11529,"ease":11530,"sculptures":11531,"studying":11532,"aluminum":11533,"beam":11534,"walkway":11535,"Dor":11536,"Lem":11537,"1994":11538,"Coins":11539,"iments":11540,"conversation":11541,"izations":11542,"sunflower":11543,"cad":11544,"thread":11545,"Riviera":11546,"combat":11547,"Cop":11548,"sculpt":11549,"moments":11550,"Maintenance":11551,"Fallen":11552,"Brad":11553,"toms":11554,"Paw":11555,"rix":11556,"Popcorn":11557,"aquarium":11558,"quir":11559,"frequ":11560,"ourses":11561,".(":11562,"NT":11563,"hundreds":11564,"skies":11565,"Memphis":11566,"executive":11567,"Carlton":11568,"Vanilla":11569,"Flamingo":11570,"wax":11571,"batter":11572,"hub":11573,"weddings":11574,"boho":11575,"Changing":11576,"nat":11577,"Catch":11578,"meter":11579,"Ivy":11580,"stem":11581,"diving":11582,"Vene":11583,"abled":11584,"Rope":11585,"Mazda":11586,"Editorial":11587,"remain":11588,"Mechan":11589,"Milwaukee":11590,"theatre":11591,"illac":11592,"Hu":11593,"Warehouse":11594,"Lanc":11595,"muscles":11596,"rolled":11597,"bac":11598,"Perspective":11599,"spice":11600,"Stripe":11601,"Rainforest":11602,"Nu":11603,"uphol":11604,"frost":11605,"Wheat":11606,"Guild":11607,"Crab":11608,"Walmart":11609,"volleyball":11610,"x1080":11611,"cheesecake":11612,"drivers":11613,"ologies":11614,"Kayak":11615,"achts":11616,"blazer":11617,"Balance":11618,"Venet":11619,"Sarees":11620,"Pantry":11621,"Healing":11622,"scraper":11623,"Bent":11624,"oe":11625,"reveal":11626,"tires":11627,"Someone":11628,"Geneva":11629,"A3":11630,"Parka":11631,"Update":11632,"ushes":11633,"farmers":11634,"Verses":11635,"cinem":11636,"925":11637,"Takes":11638,"Splash":11639,"Reven":11640,"Move":11641,"Tray":11642,"Hampton":11643,"Macro":11644,"Cadillac":11645,"Punch":11646,"arrival":11647,"Frost":11648,"Theory":11649,"Current":11650,"peror":11651,"Shops":11652,"AND":11653,"écor":11654,"inea":11655,"Solo":11656,"Volunte":11657,"Blocks":11658,"suitcase":11659,"moth":11660,"Condo":11661,"achelor":11662,"fifth":11663,"agre":11664,"Located":11665,"Dolphin":11666,"Sin":11667,"Carved":11668,"Dip":11669,"dox":11670,"billion":11671,"lily":11672,"Caucasian":11673,"improv":11674,"Gloves":11675,"iesta":11676,"meters":11677,"Shrimp":11678,"hears":11679,"Consider":11680,"Treatment":11681,"ABC":11682,"Gadgets":11683,"flyer":11684,"kil":11685,"Flick":11686,"mam":11687,"Gossip":11688,"1600":11689,"gs":11690,"rooftop":11691,"Hire":11692,"grapes":11693,"reflected":11694,"Generation":11695,"monton":11696,"PO":11697,"chini":11698,"exactly":11699,"Lonely":11700,"quets":11701,"Hig":11702,"essions":11703,"Fork":11704,"carrots":11705,"Diary":11706,"straps":11707,"stood":11708,"phalt":11709,"runner":11710,"Charleston":11711,"Ombre":11712,"Schemes":11713,"Reverse":11714,"Pret":11715,"Indianapolis":11716,"Crime":11717,"Textured":11718,"consist":11719,"techniques":11720,"Rooftop":11721,"Lifetime":11722,"Diwali":11723,"planets":11724,"insp":11725,"Twitter":11726,"osc":11727,"Species":11728,"Airbus":11729,"syrup":11730,"cosplay":11731,"ucumber":11732,"roller":11733,"hardware":11734,"Quarantine":11735,"110":11736,"generated":11737,"Growth":11738,"Husband":11739,"ucchini":11740,"Everyday":11741,"toast":11742,"profession":11743,"Edmonton":11744,"Strat":11745,"Verse":11746,"purchased":11747,"Gam":11748,"Kan":11749,"Material":11750,"Georgian":11751,"hostel":11752,"fireworks":11753,"virtual":11754,"zodiac":11755,"Column":11756,"Remodeling":11757,"UC":11758,"igen":11759,"compass":11760,"hedge":11761,"burst":11762,"Whisky":11763,"Da":11764,"dor":11765,"notice":11766,"Westminster":11767,"97":11768,"Starting":11769,"Fifth":11770,"itorium":11771,"Warner":11772,"teachers":11773,"trash":11774,"Northwest":11775,"Panther":11776,"amics":11777,"newest":11778,"haven":11779,"prison":11780,"Farmers":11781,"unniest":11782,"toise":11783,"Prairie":11784,"Sell":11785,"Havana":11786,"eros":11787,"closer":11788,"receives":11789,"Fourth":11790,"renovated":11791,"zip":11792,"Creation":11793,"Unknown":11794,"Sheets":11795,"consists":11796,"oted":11797,"introduced":11798,"Refer":11799,">?":11800,"Ballroom":11801,"stir":11802,"carrot":11803,"Lover":11804,"Saw":11805,"discovered":11806,"DO":11807,"Discovery":11808,"Impression":11809,"ethnic":11810,"Adobe":11811,"Dock":11812,"Witcher":11813,"itions":11814,"crash":11815,"directed":11816,"Ortho":11817,"ecast":11818,"uccul":11819,"bigger":11820,"fashionable":11821,"Insurance":11822,"tram":11823,"ateau":11824,"uffin":11825,"random":11826,"Underground":11827,"Vat":11828,"tide":11829,"trust":11830,"shrimp":11831,"monitor":11832,"1920x1080":11833,"Cant":11834,"Postcard":11835,"laboratory":11836,"uation":11837,"personality":11838,"bringing":11839,"Sussex":11840,"pun":11841,"extension":11842,"applied":11843,"mushroom":11844,"MT":11845,"Seah":11846,"Milky":11847,"operating":11848,"azines":11849,"Jobs":11850,"stown":11851,"actual":11852,"namese":11853,"82":11854,"illes":11855,"Trav":11856,"checking":11857,"Gets":11858,"darkness":11859,"Krish":11860,"verage":11861,"aute":11862,"circuit":11863,"Sanctuary":11864,"900":11865,"raid":11866,"Odeon":11867,"carried":11868,"Blind":11869,"skinny":11870,"Lagoon":11871,"Chrome":11872,"Greetings":11873,"address":11874,"Fireworks":11875,"squirrel":11876,"penguin":11877,"Fla":11878,"Spray":11879,"greenhouse":11880,"enthusi":11881,"ggie":11882,"Babies":11883,"ranch":11884,"wegian":11885,"Rect":11886,"Nose":11887,"Package":11888,"Baskets":11889,"etic":11890,"Roy":11891,"entist":11892,"Atlas":11893,"granite":11894,"87":11895,"laser":11896,"congr":11897,"markets":11898,"cultural":11899,"steak":11900,"Masters":11901,"vity":11902,"channel":11903,"properties":11904,"Poss":11905,"Breast":11906,"flatable":11907,"Voy":11908,"phrase":11909,"Cattle":11910,"mals":11911,"calls":11912,"moss":11913,"Minne":11914,"tering":11915,"Materials":11916,"Fleet":11917,"stuck":11918,"drone":11919,"starry":11920,"Mob":11921,"Guardian":11922,"cob":11923,"1992":11924,"squares":11925,"passed":11926,"Apocalypse":11927,"Lak":11928,"alsa":11929,"accident":11930,"sew":11931,"proposal":11932,"investig":11933,"uru":11934,"Proper":11935,"Hippie":11936,"Chill":11937,"operation":11938,"division":11939,"Quebec":11940,"atever":11941,"Singing":11942,"decision":11943,"instant":11944,"quin":11945,"expans":11946,"assembly":11947,"Volume":11948,"depicts":11949,"Cinc":11950,"tics":11951,"Flor":11952,"Career":11953,"couples":11954,"fiction":11955,"puppies":11956,"Expo":11957,"Protection":11958,"Nou":11959,"onna":11960,"however":11961,"Bibl":11962,"PI":11963,"arriving":11964,"Horizon":11965,"plot":11966,"brilliant":11967,"score":11968,"Trips":11969,"Youtube":11970,"becoming":11971,"Lisbon":11972,"rak":11973,"Dayton":11974,"Gab":11975,"Rover":11976,"wires":11977,"climb":11978,"Baroque":11979,"Booth":11980,"Although":11981,"``''":11982,"identified":11983,"bless":11984,"uan":11985,"athlete":11986,"Grab":11987,"Organs":11988,"attending":11989,"atom":11990,"Monte":11991,"Become":11992,"coco":11993,"Rig":11994,"planted":11995,"stroke":11996,"Jelly":11997,"instrument":11998,"spons":11999,"Liquid":12000,"Wim":12001,"Suggestions":12002,"Krishna":12003,"tote":12004,"dule":12005,"Auction":12006,"yesterday":12007,"Height":12008,"Thoughts":12009,"Canopy":12010,"Aqua":12011,"plic":12012,"Mahal":12013,"Yet":12014,"esame":12015,"apprec":12016,"Tees":12017,"treme":12018,"bedding":12019,"handles":12020,"Resp":12021,"IKE":12022,"lighthouse":12023,"electronic":12024,"kar":12025,"reaching":12026,"okes":12027,"Persian":12028,"totally":12029,"Rural":12030,"Brochure":12031,"trou":12032,"alion":12033,"hotels":12034,"1964":12035,"mob":12036,"porters":12037,"freedom":12038,"seasons":12039,"Virtual":12040,"holy":12041,"greenery":12042,"cycl":12043,"Push":12044,"Wisdom":12045,"Adela":12046,"memories":12047,"Affordable":12048,"Garlic":12049,"agger":12050,"Medal":12051,"poll":12052,"Pipe":12053,"Cowboys":12054,"Fold":12055,"stripe":12056,"futuristic":12057,"haust":12058,"Via":12059,"cattle":12060,"pedestrian":12061,"inkle":12062,"ramp":12063,"grocery":12064,"Adelaide":12065,"electrical":12066,"Cincinn":12067,"tough":12068,"trap":12069,"Below":12070,"university":12071,"placing":12072,"Chickens":12073,"Portal":12074,"appropr":12075,"Octopus":12076,"Television":12077,"Multiple":12078,"replica":12079,"drawer":12080,"String":12081,"Worker":12082,"camel":12083,"sausage":12084,"greens":12085,"Eas":12086,"grilled":12087,"swirl":12088,"tourism":12089,"Charming":12090,"athletes":12091,"Nostalg":12092,"Commons":12093,"tribute":12094,"shund":12095,"achshund":12096,"Cincinnati":12097,"zero":12098,"reduc":12099,"issors":12100,"Studies":12101,"Pins":12102,"assigned":12103,"Pu":12104,"ez":12105,"Finland":12106,"snacks":12107,"Silhouettes":12108,"joys":12109,"Flickr":12110,"blu":12111,"Slice":12112,"businesses":12113,"Mothers":12114,"constant":12115,"oker":12116,"Honor":12117,"Rangoli":12118,"Bust":12119,"Arabian":12120,"lugg":12121,"childhood":12122,"respect":12123,"broke":12124,"Fabulous":12125,"Hack":12126,"Object":12127,"participate":12128,"Artificial":12129,"Conservation":12130,"Sent":12131,"imsical":12132,"Dro":12133,"Mouth":12134,"ingredient":12135,"Catal":12136,"Volvo":12137,"response":12138,"1985":12139,"equipped":12140,"Cuts":12141,"Wid":12142,"listen":12143,"reported":12144,"Minneapolis":12145,"forced":12146,"1979":12147,"Talking":12148,"Supply":12149,"83":12150,"throwing":12151,"Dwarf":12152,"osa":12153,"Norwegian":12154,"Reviews":12155,"bourhood":12156,"henga":12157,"flavors":12158,"Caf":12159,"Rising":12160,"creatures":12161,"Giraffe":12162,"tribal":12163,"reference":12164,"frigerator":12165,"Machines":12166,"pouring":12167,"aria":12168,"Roads":12169,"Wilderness":12170,"Inclusive":12171,"clown":12172,"ologist":12173,"Hung":12174,"1930s":12175,"Created":12176,"nutrition":12177,"hide":12178,"oversized":12179,"sweatshirt":12180,"erted":12181,"Attic":12182,"PSD":12183,"glyph":12184,"Kat":12185,"haz":12186,"haps":12187,"Handle":12188,"Financial":12189,"vre":12190,"Tigers":12191,"restr":12192,"facial":12193,"desserts":12194,"Fern":12195,"myself":12196,"Sofia":12197,"clients":12198,"Climate":12199,"Pressure":12200,"shadows":12201,"rowave":12202,"caps":12203,"1986":12204,"Taken":12205,"Alpine":12206,"Textile":12207,"Waist":12208,"duty":12209,"ulty":12210,"awareness":12211,"personnel":12212,"costs":12213,"Mach":12214,"punch":12215,"Tri":12216,"hire":12217,"mis":12218,"functional":12219,"Fiber":12220,"measuring":12221,"Electronic":12222,"Trinity":12223,"Cinderella":12224,"olve":12225,"Diaries":12226,"compete":12227,"Triumph":12228,"Newcastle":12229,"Moose":12230,"Geographic":12231,"internal":12232,"Bart":12233,"Diving":12234,"Kur":12235,"brows":12236,"jud":12237,"curry":12238,"Vatican":12239,"bidden":12240,"cylinder":12241,"isation":12242,"iler":12243,"Motors":12244,"Beads":12245,"Gathering":12246,"Leave":12247,"Kittens":12248,"orter":12249,"phil":12250,"Attire":12251,"steering":12252,"plated":12253,"ballet":12254,"thesis":12255,"Physical":12256,"fare":12257,"Electrical":12258,"Mercury":12259,"Biker":12260,"Gentleman":12261,"Federal":12262,"Jol":12263,"hods":12264,"ibi":12265,"Acc":12266,"Eden":12267,"Koi":12268,"RP":12269,"replaced":12270,"Vietnamese":12271,"Platinum":12272,"IG":12273,"ras":12274,"Herald":12275,"picked":12276,"Traveling":12277,"approximately":12278,"belly":12279,"fixed":12280,"texts":12281,"Halo":12282,"skillet":12283,"infin":12284,"charity":12285,"towers":12286,"Greater":12287,"drill":12288,"flowering":12289,"Creator":12290,"shaw":12291,"flame":12292,"Finals":12293,"adjustable":12294,"pony":12295,"Scrap":12296,"Adjustable":12297,"ibed":12298,"offices":12299,"Surrey":12300,"Mattress":12301,"Trou":12302,"violet":12303,"humans":12304,"rises":12305,"wy":12306,"NZ":12307,"intersection":12308,"cru":12309,"Breaking":12310,"solutions":12311,"Jump":12312,"Elite":12313,"chedelic":12314,"Subaru":12315,"jackets":12316,"However":12317,"lockdown":12318,"width":12319,"ni":12320,"Fore":12321,"increasing":12322,"Mau":12323,"Grid":12324,"cuisine":12325,"arness":12326,"Butterflies":12327,"engineer":12328,"sule":12329,"Recycled":12330,"panda":12331,"resident":12332,"Believe":12333,"Gloss":12334,"touchdown":12335,"yarn":12336,"umpet":12337,"headed":12338,"preparation":12339,"Playstation":12340,"creativity":12341,"ayan":12342,"Gingerbread":12343,"96":12344,"Wiring":12345,"saf":12346,"Volleyball":12347,"forever":12348,"Gone":12349,"Alo":12350,"Vista":12351,"Sle":12352,"intell":12353,"Romania":12354,"throws":12355,"SUV":12356,"Brave":12357,"bands":12358,"arg":12359,"delivers":12360,"Duff":12361,"PL":12362,"ibu":12363,"Wellness":12364,"napkin":12365,"Bella":12366,"closing":12367,"Assembly":12368,"chim":12369,"Coupe":12370,"giraffe":12371,"Shock":12372,"Afghanistan":12373,"achieve":12374,"Indoors":12375,"uzzles":12376,"pirate":12377,"Democratic":12378,"lava":12379,"Planting":12380,"distribution":12381,"Newport":12382,"Matter":12383,"Oatmeal":12384,"pend":12385,"Register":12386,"PU":12387,"Necklaces":12388,"enjoyed":12389,"carriage":12390,"gathering":12391,"walker":12392,"Loop":12393,"Modular":12394,"bble":12395,"Hammer":12396,"Siberian":12397,"rated":12398,"ivory":12399,"orealis":12400,"deploy":12401,"altar":12402,"oso":12403,"Beginning":12404,"mol":12405,"efficient":12406,"Kir":12407,"Lit":12408,"Curry":12409,"Balls":12410,"foundation":12411,"BS":12412,"celebrations":12413,"stance":12414,"abilities":12415,"aman":12416,"walnut":12417,"Paleo":12418,"Stripes":12419,"Martial":12420,"pm":12421,"retr":12422,"bees":12423,"Cheerful":12424,"Lexus":12425,"yogurt":12426,"Ja":12427,"dar":12428,"ylon":12429,"Important":12430,"Bush":12431,"Norfolk":12432,"jan":12433,"Archae":12434,"exposure":12435,"Rainy":12436,"isol":12437,"highlights":12438,"immed":12439,"tulips":12440,"Rights":12441,"attempt":12442,"components":12443,"Venetian":12444,"Ves":12445,"Inspire":12446,"Greenhouse":12447,"Goal":12448,"anchor":12449,"Zebra":12450,"Nordic":12451,"Sah":12452,"fir":12453,"iat":12454,"lop":12455,"ishi":12456,"branding":12457,"Tires":12458,"phase":12459,"Elm":12460,"smoothie":12461,"Sud":12462,"Hardware":12463,"Wu":12464,"Goes":12465,"Visitors":12466,"Ast":12467,"Grinch":12468,"15th":12469,"Collections":12470,"audiobook":12471,"Trailers":12472,"Linear":12473,"ricultural":12474,"Bulletin":12475,"Bos":12476,"itors":12477,"ifa":12478,"watermelon":12479,"allowing":12480,"maps":12481,"Saving":12482,"pew":12483,"description":12484,"stable":12485,"Midnight":12486,"hogany":12487,"fting":12488,"paid":12489,"mockup":12490,"Ll":12491,"Chronic":12492,"sort":12493,"request":12494,"AI":12495,"dancers":12496,"Rob":12497,"Automotive":12498,"goddess":12499,"bridesmaids":12500,"syn":12501,"Funk":12502,"speak":12503,"Fender":12504,"Jul":12505,"achi":12506,"Active":12507,"satis":12508,"engraved":12509,"Rush":12510,"Remov":12511,"iji":12512,"focused":12513,"gaming":12514,"privacy":12515,"counting":12516,"LG":12517,"Roots":12518,"apper":12519,"manent":12520,"forests":12521,"??":12522,"encies":12523,"bricks":12524,"Legs":12525,"favor":12526,"competes":12527,"surprised":12528,"ello":12529,"revealed":12530,"appliances":12531,"Raspberry":12532,"steep":12533,"rehen":12534,"taxi":12535,"Wrangler":12536,"vegetarian":12537,"Pag":12538,"Within":12539,"cuff":12540,"prene":12541,"Ali":12542,"vessel":12543,"Yang":12544,"Extreme":12545,"ducing":12546,"Ord":12547,"Knife":12548,"treats":12549,"ategies":12550,"Problems":12551,"Fred":12552,"drain":12553,"elines":12554,"astes":12555,"Raised":12556,"crab":12557,"9th":12558,"ethe":12559,"delivered":12560,"Jim":12561,"acre":12562,"cliffs":12563,"Lyn":12564,"Turtles":12565,"pencils":12566,"happiness":12567,"forts":12568,"buffet":12569,"associated":12570,"81":12571,"telling":12572,"icip":12573,"esco":12574,"Cases":12575,"races":12576,"Victory":12577,"scrapers":12578,"Wrestling":12579,"oud":12580,"feels":12581,"Operations":12582,"Casserole":12583,"accur":12584,"invitations":12585,"1993":12586,"metry":12587,"Boxer":12588,"plush":12589,"Recreation":12590,"dresser":12591,"appearing":12592,"Employ":12593,"ivia":12594,"Gourmet":12595,"beet":12596,"Berry":12597,"ption":12598,"Shrine":12599,"organisms":12600,"erina":12601,"rectangle":12602,"Ankara":12603,"Inte":12604,"keto":12605,"Toe":12606,"unnies":12607,"Battery":12608,"Snowy":12609,"values":12610,"azzi":12611,"Johnson":12612,"ulting":12613,"atta":12614,"raming":12615,"uket":12616,"Fiat":12617,"Reproduction":12618,"Cert":12619,"teal":12620,"OND":12621,"Phuket":12622,"Welsh":12623,"starring":12624,"diameter":12625,"voir":12626,"arily":12627,"braids":12628,"Records":12629,"rocking":12630,"Professor":12631,"Jane":12632,"Cure":12633,"levard":12634,"concepts":12635,"sler":12636,"Collective":12637,"Skateboard":12638,"Janeiro":12639,"bsites":12640,"returns":12641,"Difference":12642,"vary":12643,"promote":12644,"bathtub":12645,"Shadows":12646,"aku":12647,"Engineer":12648,"recycled":12649,"?''":12650,"Core":12651,"academ":12652,"Mul":12653,"Restoration":12654,"Format":12655,"Falling":12656,"Belly":12657,"Pandora":12658,"UAE":12659,"Labels":12660,"Dating":12661,"Ach":12662,"Bend":12663,"TS":12664,"Bark":12665,"Pillows":12666,"scious":12667,"Housing":12668,"Ministry":12669,"Feminine":12670,"ording":12671,"Shots":12672,"Counter":12673,"Sheff":12674,"fortun":12675,"Mythical":12676,"ento":12677,"Omega":12678,"ptoms":12679,"surgery":12680,"irly":12681,"drag":12682,"setup":12683,"cheerful":12684,"Sheffield":12685,"Ther":12686,"recording":12687,"junior":12688,"Chains":12689,"peas":12690,"ificate":12691,"iquor":12692,"dollars":12693,"wig":12694,"stom":12695,"1991":12696,"Honeymoon":12697,"Festivals":12698,"NOT":12699,"Wax":12700,"heels":12701,"absolutely":12702,"waterfront":12703,"chrome":12704,"meg":12705,"Chrysler":12706,"Lac":12707,"MB":12708,"Cause":12709,"Vodka":12710,"arazzi":12711,"Waterfront":12712,"ripe":12713,"hew":12714,"Avocado":12715,"Alexand":12716,"Hide":12717,"Nic":12718,"Newspaper":12719,"Coats":12720,"Dyn":12721,"Sites":12722,"polished":12723,"routine":12724,"secure":12725,"demonstration":12726,"Daisy":12727,"ustries":12728,"crosses":12729,"necessary":12730,"Trousers":12731,"ceilings":12732,"Pope":12733,"Mighty":12734,"tear":12735,"1987":12736,"Goa":12737,"Versace":12738,"collected":12739,"IKEA":12740,"gender":12741,"envelope":12742,"Blade":12743,"iana":12744,"Pots":12745,"Sapphire":12746,"initial":12747,"aved":12748,"Ans":12749,"matches":12750,"relaxed":12751,"Siding":12752,"lem":12753,"olley":12754,"scars":12755,"Spac":12756,"Muffins":12757,"fellow":12758,"Analysis":12759,"Battalion":12760,"Orthodox":12761,"Smartphone":12762,"Dhab":12763,"saving":12764,"Prison":12765,"carving":12766,"holm":12767,"Tulle":12768,"Dirty":12769,"Susp":12770,"ulous":12771,"Plym":12772,"bridesmaid":12773,"Monochrome":12774,"Pops":12775,"legal":12776,"terminal":12777,"Smash":12778,"transform":12779,"rule":12780,"raiser":12781,"textures":12782,"upe":12783,"Thigh":12784,"obs":12785,"Loom":12786,"rivers":12787,"Monaco":12788,"Hybrid":12789,"wallet":12790,"Sau":12791,"Corgi":12792,"Cardigan":12793,"scal":12794,"oky":12795,"Arcade":12796,"worldwide":12797,"rugby":12798,"agn":12799,"Structures":12800,"1972":12801,"Sisters":12802,"Trench":12803,"Keys":12804,"continued":12805,"Bulls":12806,"rendered":12807,"practical":12808,"Philippine":12809,"Monogram":12810,"Scripture":12811,"uting":12812,"apa":12813,"12th":12814,"capacity":12815,"Leader":12816,"gates":12817,"hearing":12818,"Arc":12819,"Maur":12820,"Oscar":12821,"driveway":12822,"homest":12823,"Continue":12824,"Mirrors":12825,"chopped":12826,"ornate":12827,"Herbal":12828,"Operation":12829,"Serve":12830,"Inner":12831,"Denali":12832,"glue":12833,"rif":12834,"Pedest":12835,"mount":12836,"Facial":12837,"demol":12838,"connecting":12839,"Proud":12840,"aire":12841,"Afternoon":12842,"Plymouth":12843,"Screenshots":12844,"greater":12845,"peg":12846,"Sides":12847,"nai":12848,"urel":12849,"assistant":12850,"delight":12851,"Jas":12852,"Rises":12853,"dusk":12854,"insects":12855,"Hyatt":12856,"bate":12857,"Residences":12858,"Seren":12859,"DJ":12860,"activ":12861,"guar":12862,"basil":12863,"Belgian":12864,"Essentials":12865,"triangles":12866,"ED":12867,"Flex":12868,"Tram":12869,"Stove":12870,"Surfing":12871,"1973":12872,"volunteers":12873,"presenting":12874,"wrapping":12875,"toman":12876,"....":12877,"USB":12878,"Assass":12879,"toss":12880,"Teens":12881,"Deals":12882,"60s":12883,"Extension":12884,"Dod":12885,"requires":12886,"jacent":12887,"sam":12888,"Armed":12889,"dental":12890,"inous":12891,"compact":12892,"gardening":12893,"benefit":12894,"Reindeer":12895,"insurance":12896,"Kyoto":12897,"spinach":12898,"Spicy":12899,"Protect":12900,"fto":12901,"shallow":12902,"cooling":12903,"92":12904,"Quiet":12905,"foil":12906,"interiors":12907,"lettuce":12908,"pipes":12909,"alet":12910,"Chin":12911,"encourag":12912,"len":12913,"Carb":12914,"Hart":12915,"uese":12916,"update":12917,"Clark":12918,"Suitable":12919,"locks":12920,"Vectors":12921,"parks":12922,"Pow":12923,"counts":12924,"happen":12925,"uniforms":12926,"Stall":12927,"Hours":12928,"Paj":12929,"grant":12930,"Rim":12931,"Patagon":12932,"homeless":12933,"poured":12934,"urers":12935,"agara":12936,"inspiring":12937,"Suzuki":12938,"Pioneer":12939,"homestay":12940,"scary":12941,"combine":12942,"suspension":12943,"Brussels":12944,"boyfriend":12945,"Bio":12946,"Kin":12947,"Lamb":12948,"1988":12949,"horror":12950,"Narrow":12951,"experiment":12952,"Violet":12953,"Parrot":12954,"icycles":12955,"Backpacks":12956,"Semi":12957,"Gund":12958,"wasn":12959,"curs":12960,"tired":12961,"yssey":12962,"Miniatures":12963,"igenous":12964,"Haircut":12965,"OK":12966,"landmark":12967,"Nile":12968,"Qatar":12969,"picking":12970,"paints":12971,"Patriots":12972,"lakes":12973,"esan":12974,"Initial":12975,"seconds":12976,"defense":12977,"sleek":12978,"Gin":12979,"1977":12980,"Mut":12981,"Keto":12982,"Secretary":12983,"memorial":12984,"1978":12985,"Laur":12986,"Baker":12987,"alarm":12988,"Twins":12989,"Railroad":12990,"survive":12991,"Chronicle":12992,"Prices":12993,"flock":12994,"Loaf":12995,"knows":12996,"Yamaha":12997,"immer":12998,"Poetry":12999,"environmental":13000,"stool":13001,"Partn":13002,"conceptual":13003,"Blur":13004,"Deadpool":13005,"isan":13006,"Scoo":13007,"Homecoming":13008,"Furn":13009,"Dhabi":13010,"eper":13011,"estim":13012,"hitting":13013,"loop":13014,"canopy":13015,"garbage":13016,"Reptiles":13017,"Powerful":13018,"sau":13019,"Usa":13020,"Creamy":13021,"Mickey":13022,"crisp":13023,"Crescent":13024,"blind":13025,"14th":13026,"mach":13027,"uum":13028,"filter":13029,"Potatoes":13030,"hipster":13031,"santa":13032,"Hundreds":13033,"Such":13034,"94":13035,"ifier":13036,"Mine":13037,"photographers":13038,"oons":13039,"aft":13040,"CAA":13041,"ifacts":13042,"omegran":13043,"classical":13044,"Camaro":13045,"veau":13046,"visor":13047,"Rou":13048,"maybe":13049,"ministration":13050,"hemat":13051,"choosing":13052,"Dreamworks":13053,"Definition":13054,"Keeping":13055,"azaar":13056,"lac":13057,"Hound":13058,"Brief":13059,"Cord":13060,"ervoir":13061,"Strip":13062,"uction":13063,"Proof":13064,"neckline":13065,"fleet":13066,"wiring":13067,"izar":13068,"solute":13069,"bodies":13070,"Nik":13071,"creek":13072,"spiritual":13073,"affles":13074,"Mits":13075,"japan":13076,"flake":13077,"lightning":13078,"Effects":13079,"Famil":13080,"console":13081,"125":13082,"experts":13083,"Tulip":13084,"mary":13085,"degrees":13086,"Privacy":13087,"statues":13088,"Communication":13089,"Pudding":13090,"Watermelon":13091,"escape":13092,"Ace":13093,"Matt":13094,"scenic":13095,"subway":13096,"oria":13097,"carp":13098,"viol":13099,"ographic":13100,"broccoli":13101,"converted":13102,"float":13103,"multicol":13104,"lipstick":13105,"Fra":13106,"Herbs":13107,"Chiang":13108,"quarant":13109,"cigarette":13110,"Planner":13111,"Scooter":13112,"Taco":13113,"curve":13114,"voc":13115,"advice":13116,"Cuisine":13117,"Overs":13118,"Pis":13119,"Watercolour":13120,"harbor":13121,"Finished":13122,"Stew":13123,"watering":13124,"Feed":13125,"volunteer":13126,"Dancer":13127,"Dynasty":13128,"Sick":13129,"peppers":13130,"Interactive":13131,"transition":13132,"Gib":13133,"entering":13134,"importance":13135,"Lee":13136,"Timeless":13137,"Oaks":13138,"Wynd":13139,"terrain":13140,"phony":13141,"Rider":13142,"eria":13143,"mattress":13144,"songs":13145,"icipal":13146,"magnificent":13147,"anatomy":13148,"throp":13149,"cocktails":13150,"Non":13151,"Patagonia":13152,"occur":13153,"Palette":13154,"vous":13155,"erk":13156,"hism":13157,"Helmets":13158,"Aluminum":13159,"sustainable":13160,"calling":13161,"seafood":13162,"underground":13163,"presidential":13164,"situated":13165,"warming":13166,"Niagara":13167,"harbour":13168,"Sloth":13169,"Genes":13170,"fasc":13171,"strategy":13172,"earchers":13173,"Riverside":13174,"Banks":13175,"Clinic":13176,"exciting":13177,"//":13178,"960":13179,"LP":13180,"elve":13181,"Braided":13182,"weird":13183,"proto":13184,"girlfriend":13185,"24x":13186,"hunt":13187,"Thought":13188,"bok":13189,"containers":13190,"finishing":13191,"surfing":13192,"Tunnel":13193,"ardi":13194,"Louvre":13195,"advanced":13196,"180":13197,"CAR":13198,"Circuit":13199,"agency":13200,"flows":13201,"Exercises":13202,"hundred":13203,"ny":13204,"Grande":13205,"rusty":13206,"Tire":13207,"Sweets":13208,"heav":13209,"Relief":13210,"Dirt":13211,"initi":13212,"Requ":13213,"inals":13214,"numerous":13215,"fridge":13216,"Sequin":13217,"uing":13218,"Elev":13219,"Banquet":13220,"Fuel":13221,"bond":13222,"beaded":13223,"Chase":13224,"cluster":13225,"PR":13226,"iants":13227,"Patrol":13228,"shells":13229,"society":13230,"Charlie":13231,"Purpose":13232,"adidas":13233,"Regiment":13234,"icone":13235,"cum":13236,"coated":13237,"oscope":13238,"terms":13239,"bald":13240,"Electronics":13241,"zipper":13242,"glaze":13243,"Naples":13244,"Sier":13245,"hiding":13246,"iph":13247,"mental":13248,"currency":13249,"dorm":13250,"Flats":13251,"unveiled":13252,"titude":13253,"situation":13254,"Somers":13255,"750":13256,"pip":13257,"Console":13258,"Cork":13259,"etheart":13260,"updated":13261,"scattered":13262,"Manual":13263,"collections":13264,"quarantined":13265,"Dough":13266,"tec":13267,"Contact":13268,"regions":13269,"1963":13270,"1976":13271,"Distance":13272,"Few":13273,"LS":13274,"Illusion":13275,"Paparazzi":13276,"PDF":13277,"replace":13278,"Comfortable":13279,"Prehistoric":13280,"Revenge":13281,"Sausage":13282,"Scr":13283,"Nebula":13284,"Punjab":13285,"Occasion":13286,"Rid":13287,"economy":13288,"Biblical":13289,"bullet":13290,"Direction":13291,"calf":13292,"Feeling":13293,"bills":13294,"navig":13295,"umpl":13296,"oxy":13297,"gam":13298,"uler":13299,"Autism":13300,"Tactical":13301,"supporting":13302,"sacred":13303,"rush":13304,"pairs":13305,"Wyndham":13306,"parrot":13307,"structor":13308,"Tol":13309,"Festive":13310,"Chennai":13311,"ferry":13312,"Collectible":13313,"Seaside":13314,"Jumping":13315,"Rex":13316,"exchange":13317,"herb":13318,"rican":13319,"Handbag":13320,"ipedia":13321,"breeds":13322,"ikers":13323,"learned":13324,"Gotham":13325,"reacts":13326,"armacy":13327,"raph":13328,"clipping":13329,"Pi":13330,"Replica":13331,"mode":13332,"Measure":13333,"plank":13334,"ensions":13335,"Stockholm":13336,"shelving":13337,"Nickel":13338,"petals":13339,"Almost":13340,"eats":13341,"LOND":13342,"crest":13343,"Heads":13344,"LONDON":13345,"Bav":13346,"Lose":13347,"Sag":13348,"Bapt":13349,"Malibu":13350,"gotten":13351,"Superior":13352,"Hallway":13353,"Innovation":13354,"boro":13355,"mold":13356,"Spoon":13357,"patrol":13358,"Floyd":13359,"suede":13360,"imedia":13361,"finest":13362,"Malta":13363,"appropriate":13364,"Fossil":13365,"Sushi":13366,"ket":13367,"pudding":13368,">),":13369,"bells":13370,"Enchanted":13371,"Answer":13372,"Done":13373,"Dora":13374,"GB":13375,"Carol":13376,"Surpr":13377,"Portuguese":13378,"pickup":13379,"UEFA":13380,"tissue":13381,"religion":13382,"arc":13383,"Bling":13384,"chalkboard":13385,"Rangers":13386,"Ghana":13387,"Nav":13388,"Inv":13389,"signage":13390,"Thick":13391,"limit":13392,"storey":13393,"Dinosaurs":13394,"Oversized":13395,"worst":13396,"pea":13397,"foreign":13398,"30th":13399,"slip":13400,"twice":13401,"incorpor":13402,"eta":13403,"turb":13404,"messages":13405,"Psych":13406,"strike":13407,"40k":13408,"Imp":13409,"wat":13410,"Mol":13411,"account":13412,"iary":13413,"brook":13414,"checks":13415,"seys":13416,"polka":13417,"snowman":13418,"TR":13419,"chains":13420,"estimate":13421,"pushing":13422,"Purch":13423,"adap":13424,"showcase":13425,"borne":13426,"knitted":13427,"illusion":13428,"Junk":13429,"Quiz":13430,"Cage":13431,"Oh":13432,"vast":13433,"Ill":13434,"Hooded":13435,"horns":13436,"tallest":13437,"Chalkboard":13438,"Sic":13439,"Tavern":13440,"Sage":13441,"adjacent":13442,"Saga":13443,"enjoys":13444,"Drift":13445,"Shelter":13446,"Boulevard":13447,"zilla":13448,"1982":13449,"cones":13450,"itched":13451,"Starry":13452,"Pent":13453,"stations":13454,"causes":13455,"1971":13456,"skating":13457,"Divine":13458,"Ruffle":13459,"paste":13460,"Charity":13461,"eu":13462,"visits":13463,"pyramid":13464,"protected":13465,"Bowls":13466,"inerary":13467,"habitat":13468,"DNA":13469,"Dancers":13470,"eping":13471,"ubishi":13472,"thumbnail":13473,"Mitsubishi":13474,"appeal":13475,"assist":13476,"Forget":13477,"Carr":13478,"Dove":13479,"Southwest":13480,"vin":13481,"arin":13482,"usable":13483,"uggle":13484,"Penny":13485,"Blow":13486,"Flame":13487,"Detective":13488,"investment":13489,"exploring":13490,"stomach":13491,"UR":13492,"versions":13493,"Advices":13494,"Terminal":13495,"Later":13496,"Daytona":13497,"wit":13498,"estial":13499,"Westwood":13500,"breaks":13501,"couldn":13502,"lia":13503,"extended":13504,"Fluffy":13505,"Penguins":13506,"Wake":13507,"hawk":13508,"regional":13509,"BBC":13510,"Surprise":13511,"Astr":13512,"emotions":13513,"spur":13514,"Tractors":13515,"animated":13516,"enny":13517,"Insects":13518,"instruments":13519,"Hollow":13520,"bou":13521,"bakery":13522,"gang":13523,"acteria":13524,"Breed":13525,"loading":13526,"cinema":13527,"Rode":13528,"saree":13529,"Gum":13530,"Creations":13531,"pancakes":13532,"Farmer":13533,"Highlights":13534,"gie":13535,"istle":13536,"Grou":13537,"sees":13538,"plaster":13539,"Toast":13540,"Wick":13541,"itics":13542,"playoff":13543,"sparkling":13544,"devices":13545,"Bachelor":13546,"differ":13547,"gravel":13548,"chose":13549,"attractions":13550,"Kil":13551,"indoors":13552,"Props":13553,"Gymnastics":13554,"Granite":13555,"described":13556,"Yarn":13557,"Sandy":13558,"cables":13559,"Minute":13560,"Customer":13561,"querade":13562,"Monarch":13563,"Ira":13564,"winners":13565,"util":13566,"Messenger":13567,"lessons":13568,"participants":13569,"Loose":13570,"Warning":13571,"dash":13572,"founder":13573,"tackle":13574,"Successful":13575,"emy":13576,"Tricks":13577,"Flip":13578,"needle":13579,"Planters":13580,"inoa":13581,"missile":13582,"grows":13583,"adapt":13584,"eve":13585,"Copyright":13586,"cant":13587,"mor":13588,"Thousand":13589,"blossoms":13590,"TODAY":13591,"Beetle":13592,"Koh":13593,"Dear":13594,"insect":13595,"daughters":13596,"Automatic":13597,"sections":13598,"inding":13599,"Grad":13600,"Removal":13601,"Colombia":13602,"Gundam":13603,"diverse":13604,"eco":13605,"Designing":13606,"walked":13607,"illustrator":13608,"Lor":13609,"tock":13610,"Surge":13611,"Dou":13612,"adm":13613,"olla":13614,"squash":13615,"jelly":13616,"160":13617,"templates":13618,"decades":13619,"driven":13620,"despite":13621,"Luxe":13622,"Doodles":13623,"Na":13624,"commemor":13625,"killed":13626,"fashioned":13627,"Guinea":13628,"injury":13629,"df":13630,"array":13631,"grape":13632,"Mira":13633,"shoots":13634,"Norse":13635,"Pigeon":13636,"imental":13637,"Orchestra":13638,"Strength":13639,"Sierra":13640,"Designers":13641,"Nostalgia":13642,"Cuban":13643,"pantry":13644,"chili":13645,"anoi":13646,"apot":13647,"oved":13648,"Beir":13649,"Carrier":13650,"Visiting":13651,"advantage":13652,"Incre":13653,"usement":13654,"iately":13655,"tort":13656,"alley":13657,"Catering":13658,"Beirut":13659,"PM":13660,"antis":13661,"crim":13662,"naturally":13663,"Somerset":13664,"Resin":13665,"25th":13666,"squad":13667,"Cum":13668,"paw":13669,"1940s":13670,"kawaii":13671,"forcement":13672,"Hanoi":13673,"ctica":13674,"snap":13675,"Loch":13676,"quisite":13677,"Article":13678,"Novelty":13679,"mango":13680,"armesan":13681,"Bentley":13682,"Filled":13683,"agues":13684,"upt":13685,"matte":13686,"continuous":13687,"1955":13688,"Won":13689,"uscript":13690,"displaying":13691,"concent":13692,"intric":13693,"Married":13694,"Teeth":13695,"Jumpsuit":13696,"wagon":13697,"onies":13698,"handbag":13699,"Buckingham":13700,"bred":13701,"mingbird":13702,"($":13703,"fern":13704,"ipei":13705,"Taipei":13706,"hex":13707,"Lilac":13708,"x1200":13709,"Shining":13710,"versatile":13711,"Godzilla":13712,"Jigsaw":13713,"Bathing":13714,"imensional":13715,"Prize":13716,"heaven":13717,"esters":13718,"ighth":13719,"icular":13720,"isha":13721,"Tud":13722,"tells":13723,"epic":13724,"eware":13725,"Holi":13726,"Surgery":13727,"Teams":13728,"Welding":13729,"henomen":13730,"ritory":13731,"Furious":13732,"Suff":13733,"Spell":13734,"Odyssey":13735,"Cod":13736,"warts":13737,"Parenting":13738,"countertop":13739,"Foam":13740,"Orchard":13741,"Hungry":13742,"Cuff":13743,"alore":13744,"programs":13745,"Caps":13746,"flaming":13747,"***":13748,"WH":13749,"armac":13750,"definition":13751,"Lunar":13752,"ns":13753,"spending":13754,"scream":13755,"skill":13756,"processing":13757,"Pc":13758,"touches":13759,"worship":13760,"resale":13761,"Solution":13762,"Agriculture":13763,"Options":13764,"Nigeria":13765,"Dramatic":13766,"iency":13767,"Astronomy":13768,"brunch":13769,"cham":13770,"ilation":13771,"borders":13772,"afford":13773,"bearded":13774,"izarre":13775,"Favors":13776,"OH":13777,"Tape":13778,"Alpha":13779,"Conc":13780,"metrical":13781,"seasonal":13782,"oh":13783,"bund":13784,"scores":13785,"Acoustic":13786,"Menswear":13787,"Optical":13788,"legendary":13789,"Rust":13790,"rainforest":13791,"Wolves":13792,"Kash":13793,"tun":13794,"enhance":13795,"refreshing":13796,"Gall":13797,"Totten":13798,"herself":13799,"Renov":13800,"Borealis":13801,"Majestic":13802,"omegranate":13803,"1974":13804,"Reality":13805,"1800":13806,"Farming":13807,"Celebrating":13808,"1983":13809,"acid":13810,"Luxurious":13811,"Thread":13812,"Barber":13813,"Circular":13814,"crisis":13815,"Dup":13816,"hoop":13817,"agull":13818,"compound":13819,"Loving":13820,"Mock":13821,"Slic":13822,"believed":13823,"gging":13824,"mad":13825,"wreck":13826,"compared":13827,"Rooster":13828,"spher":13829,"Wonderland":13830,"Forward":13831,"Improv":13832,"Mai":13833,"uffles":13834,"meant":13835,"Fashionable":13836,"11th":13837,"Objects":13838,"Sox":13839,"praying":13840,"ceremon":13841,"estead":13842,"Purse":13843,"Sask":13844,"Herb":13845,"Sedan":13846,"Rodeo":13847,"AZ":13848,"ewood":13849,"Franklin":13850,"Wikipedia":13851,"bons":13852,"rection":13853,"truth":13854,"Trash":13855,"Bowling":13856,"timeless":13857,"divided":13858,"tulle":13859,"Lakers":13860,"Tottenham":13861,"desh":13862,"Dangerous":13863,"rein":13864,"Scorp":13865,"resistant":13866,"mining":13867,"pars":13868,"sch":13869,"Shrubs":13870,"represented":13871,"EM":13872,"Layouts":13873,"aba":13874,"Notting":13875,"Massage":13876,"chapter":13877,"muffins":13878,"tend":13879,"LOVE":13880,"pumpkins":13881,"Winner":13882,"torn":13883,"Drawer":13884,"knock":13885,"screening":13886,"padd":13887,"dual":13888,"Tanz":13889,"Basilica":13890,"Jaipur":13891,"cheek":13892,"elle":13893,"Gob":13894,"eton":13895,"embell":13896,"antee":13897,"outlet":13898,"arsity":13899,"Temper":13900,"cabinetry":13901,"dle":13902,"tours":13903,"Columbus":13904,"vd":13905,"Cardboard":13906,"bumper":13907,"itime":13908,"fract":13909,"blade":13910,"thigh":13911,"ishings":13912,"Savannah":13913,"Sect":13914,"Disco":13915,"Jewels":13916,"Venus":13917,"Keychain":13918,"lucky":13919,"independent":13920,"spaghetti":13921,"Revival":13922,"safari":13923,"pedia":13924,"Violin":13925,"Iraq":13926,"Atom":13927,"Strike":13928,"Advertisements":13929,"iples":13930,"heard":13931,"Charts":13932,"lonely":13933,"users":13934,"Skating":13935,"Ducks":13936,"pdf":13937,"Calling":13938,"Glowing":13939,"haircut":13940,"slopes":13941,"sack":13942,"ulum":13943,"Lone":13944,"Stress":13945,"sophisticated":13946,"ieties":13947,"Fiesta":13948,"Cheetah":13949,"rests":13950,"Wemble":13951,"advertis":13952,"Hottest":13953,"Edible":13954,"carefully":13955,"Wembley":13956,"finds":13957,"Pradesh":13958,"digit":13959,"Tibetan":13960,"Chronicles":13961,"Eps":13962,"NCAA":13963,"Va":13964,"arium":13965,"kelet":13966,"Serious":13967,"Carrot":13968,"Spread":13969,"popcorn":13970,"leadership":13971,"Tuxedo":13972,"Malt":13973,"haul":13974,"pastry":13975,"landscapes":13976,"ensed":13977,"...''":13978,"panoramic":13979,"amba":13980,"Script":13981,"cms":13982,"sq":13983,"Polka":13984,"Corpor":13985,"fu":13986,"kits":13987,"guided":13988,"Eu":13989,"caption":13990,"Sweaters":13991,"Bound":13992,"Gap":13993,"Hoop":13994,"hay":13995,"toned":13996,"Guns":13997,"1957":13998,"discussion":13999,"Hogwarts":14000,"Progress":14001,"Leadership":14002,"Giza":14003,"resist":14004,"Countryside":14005,"scratch":14006,"Funko":14007,"MN":14008,"Aspen":14009,"iology":14010,"Felt":14011,"Send":14012,"receiver":14013,"Antarctica":14014,"Li":14015,"overlay":14016,"Compar":14017,"satellite":14018,"Fc":14019,"transformed":14020,"Diabet":14021,"mason":14022,"Moore":14023,"ampton":14024,"signal":14025,"everywhere":14026,"Blooming":14027,"Saturn":14028,"Basin":14029,"Rough":14030,"Yachts":14031,"Roast":14032,"iscus":14033,"Tone":14034,"Ah":14035,"Chateau":14036,"commander":14037,"Purses":14038,"buses":14039,"icts":14040,"perched":14041,"Coco":14042,"prime":14043,"proced":14044,"Spaghetti":14045,"Emperor":14046,"lighter":14047,"sched":14048,"Snakes":14049,"Recon":14050,"minor":14051,"pulls":14052,"practices":14053,"explosion":14054,"bomb":14055,"izable":14056,"leggings":14057,"Drone":14058,"Advanced":14059,"appar":14060,"Teach":14061,"determine":14062,"Aub":14063,"conce":14064,"Lof":14065,"freshly":14066,"mashed":14067,"grance":14068,"Aztec":14069,"arab":14070,"skateboard":14071,"vari":14072,"Decorated":14073,"draws":14074,"county":14075,"Wrapped":14076,"Pill":14077,"Maybe":14078,"combines":14079,"Textiles":14080,"Waters":14081,"Guess":14082,"bacco":14083,"Royce":14084,"Stir":14085,"Chat":14086,"Grumpy":14087,"bledon":14088,"frag":14089,"Earring":14090,"Tamil":14091,"arma":14092,"abyr":14093,"Brewing":14094,"violin":14095,">...":14096,"abyrinth":14097,"kor":14098,"agos":14099,"Ethiopia":14100,"Oscars":14101,"Michel":14102,"alia":14103,"equation":14104,"Symphony":14105,"Haute":14106,"rehears":14107,"Reason":14108,"ifting":14109,"portable":14110,"sounds":14111,"Dunge":14112,"chosen":14113,"Hungary":14114,"plug":14115,"Finally":14116,"opportunities":14117,"Ay":14118,"pically":14119,"labeled":14120,"maximum":14121,"pounds":14122,"Mechanical":14123,"UT":14124,"armchair":14125,"Coffin":14126,"Arbor":14127,"Apply":14128,"solo":14129,"quito":14130,"posts":14131,"supplied":14132,"armor":14133,"kim":14134,"umes":14135,"upid":14136,"listing":14137,"Basics":14138,"alternate":14139,"Mandatory":14140,"Buddhism":14141,"replacement":14142,"emotional":14143,"clopedia":14144,"Poems":14145,"knew":14146,"Intell":14147,"studies":14148,"Lid":14149,"Ladder":14150,"controls":14151,"Mack":14152,"isions":14153,"Cloth":14154,"corridor":14155,"Planter":14156,"dais":14157,"Gateway":14158,"Integr":14159,"destroyed":14160,"crowds":14161,"Needle":14162,"SF":14163,"inaug":14164,"phi":14165,"flames":14166,"subtle":14167,"Pont":14168,"Literature":14169,"Waste":14170,"Worship":14171,"Mustard":14172,"electricity":14173,"gical":14174,"discount":14175,"medit":14176,"tributed":14177,"marshm":14178,"topping":14179,"Woodstock":14180,"hyth":14181,"Beginner":14182,"dim":14183,"Beans":14184,"Doing":14185,"Typical":14186,"Dolphins":14187,"reveals":14188,"Kaz":14189,"Saf":14190,"Chips":14191,"Remote":14192,"entertaining":14193,"increased":14194,"Bare":14195,"ounts":14196,"incial":14197,"drug":14198,"Actually":14199,"Dart":14200,"olar":14201,"interface":14202,"fabrics":14203,"upgra":14204,"upiter":14205,"Sketchbook":14206,"sedan":14207,"Caterpillar":14208,"93":14209,"Tat":14210,"orie":14211,"rose":14212,"hob":14213,"Maser":14214,"trainer":14215,"Wimbledon":14216,"firefighters":14217,"Harvard":14218,"tags":14219,"Sour":14220,"VER":14221,"ONE":14222,"agent":14223,"Composition":14224,"filming":14225,"Ecu":14226,"abil":14227,"Glory":14228,"casino":14229,"suspended":14230,"Geography":14231,"akarta":14232,"ortment":14233,"comed":14234,"azers":14235,"Dried":14236,"editable":14237,"Wuhan":14238,"innovative":14239,"Optim":14240,"SH":14241,"lings":14242,"murals":14243,"Tired":14244,"phic":14245,"001":14246,"Badass":14247,"crispy":14248,"creature":14249,"akens":14250,"Olymp":14251,"Fairytale":14252,"Axles":14253,"officially":14254,"Lips":14255,"vir":14256,"shift":14257,"Committee":14258,"Raising":14259,"Boom":14260,"practicing":14261,"Tahoe":14262,"Chamber":14263,"Duffel":14264,"ucculent":14265,"brochure":14266,"Predator":14267,"fond":14268,"Chili":14269,"ernatural":14270,"friendship":14271,"Plantation":14272,"manual":14273,"viewing":14274,"economic":14275,"drizz":14276,"Corona":14277,"pumps":14278,"Armored":14279,"lust":14280,"outing":14281,"orean":14282,"complement":14283,"Hindi":14284,"urches":14285,"Cotsw":14286,"collaboration":14287,"brake":14288,"aphone":14289,"Elderly":14290,"tors":14291,"composed":14292,"Canc":14293,"restoration":14294,"Maya":14295,"extreme":14296,"Coron":14297,"Serving":14298,"Shooting":14299,"dorf":14300,"Winning":14301,"enta":14302,"celebrity":14303,"Rule":14304,"established":14305,"arf":14306,"manufacturer":14307,"Mandalorian":14308,"Firefighter":14309,"loom":14310,"pops":14311,"boost":14312,"Firefighters":14313,"gum":14314,"soda":14315,"Fallout":14316,"Hunger":14317,"carnival":14318,"bananas":14319,"souvenir":14320,"Pens":14321,"Vinc":14322,"Brun":14323,"Jupiter":14324,"optim":14325,"monogram":14326,"ornamental":14327,"hips":14328,"womens":14329,"Gan":14330,"atively":14331,"durable":14332,"Topper":14333,"1959":14334,"Dots":14335,"iko":14336,"Maserati":14337,"stages":14338,"pergola":14339,"1981":14340,"Engraved":14341,"anium":14342,"manga":14343,"Variety":14344,"480":14345,"ipl":14346,"orbit":14347,"Ana":14348,"Geometry":14349,"macro":14350,"followed":14351,"ounce":14352,"icted":14353,"ellers":14354,"anywhere":14355,"longest":14356,"travels":14357,"Teachers":14358,"familiar":14359,"ingle":14360,"charged":14361,"Cubs":14362,"Dimensions":14363,"Rece":14364,"Fairies":14365,"Galleries":14366,"Pixie":14367,"Brewery":14368,"Venez":14369,"bors":14370,"nights":14371,"goth":14372,"presence":14373,"Hobby":14374,"edible":14375,"hesive":14376,"Seeing":14377,"dunes":14378,"maj":14379,"functions":14380,"Vespa":14381,"Vuit":14382,"agas":14383,"Vuitton":14384,"acres":14385,"younger":14386,"1400":14387,"lusions":14388,"massage":14389,"Tudor":14390,"Vice":14391,"understanding":14392,"Goods":14393,"congrat":14394,"Crocodile":14395,"Vineyard":14396,"retreat":14397,"magnetic":14398,"aniel":14399,"washer":14400,"Ape":14401,"faced":14402,"Classics":14403,"Preview":14404,"Stanley":14405,"flip":14406,"themes":14407,"Walkway":14408,"Chemistry":14409,"andise":14410,"Americ":14411,"records":14412,"tested":14413,"searching":14414,"Assistant":14415,"stopped":14416,"Silverado":14417,"teenager":14418,"knitting":14419,"Nomad":14420,"hybrid":14421,"Aber":14422,"strange":14423,"Atlantis":14424,"ticket":14425,"thon":14426,"burgundy":14427,"Worn":14428,"IDE":14429,"household":14430,"Gil":14431,"UL":14432,"justice":14433,"craw":14434,"ulator":14435,"Particip":14436,"heroes":14437,"microscope":14438,"Hike":14439,"Voc":14440,"Invent":14441,"exit":14442,"promotional":14443,"Raiders":14444,"bender":14445,"iy":14446,"Weaving":14447,"Souvenir":14448,"clutch":14449,"WWE":14450,"Sax":14451,"scoop":14452,"remaining":14453,"election":14454,"pools":14455,"motivational":14456,"candidate":14457,"Saskat":14458,"bats":14459,"printer":14460,"Hoo":14461,"experiences":14462,"Sharing":14463,"Nativity":14464,"istr":14465,"telephone":14466,"Connection":14467,"Selective":14468,"Jones":14469,"aine":14470,"Mak":14471,"istro":14472,"mandala":14473,"Albums":14474,"Lie":14475,"tran":14476,"lishing":14477,"volcano":14478,"Bourbon":14479,"Fusion":14480,"leisure":14481,"Amphib":14482,"Laughing":14483,"tained":14484,".-":14485,"Funniest":14486,"register":14487,"Pyramids":14488,"Stylized":14489,"recr":14490,"merce":14491,"poem":14492,"Hercules":14493,"Crush":14494,"Woven":14495,"winds":14496,"neat":14497,"Mega":14498,"ydra":14499,"Venture":14500,"Impact":14501,"jpeg":14502,"auge":14503,"Brilliant":14504,"pg":14505,"profit":14506,"Lugg":14507,"topic":14508,"ancake":14509,"individuals":14510,"recommend":14511,"wicker":14512,"chin":14513,"Deter":14514,"introduction":14515,"Meets":14516,"commonly":14517,"challenges":14518,"cube":14519,"Bearded":14520,"Comm":14521,"Older":14522,"Botanic":14523,"Knitted":14524,"Sahara":14525,"Cov":14526,"loo":14527,"ibre":14528,"valu":14529,"Namib":14530,"assel":14531,"Grape":14532,"links":14533,"Fails":14534,"elegance":14535,"server":14536,"Silent":14537,"Bangalore":14538,"Fully":14539,"Kitten":14540,"tasting":14541,"approved":14542,"sett":14543,"guess":14544,"amongst":14545,"thumbs":14546,"veil":14547,"Feathers":14548,"sources":14549,"evolution":14550,"worm":14551,"gged":14552,"Luggage":14553,"Ecle":14554,"wavy":14555,"ifty":14556,"Showers":14557,"BL":14558,"kale":14559,"Owner":14560,"Porto":14561,"mirrors":14562,"diver":14563,"fires":14564,"Gras":14565,"Hermes":14566,"McDon":14567,"abulary":14568,"boasts":14569,"botanical":14570,"sporting":14571,"possibly":14572,"mop":14573,"ares":14574,"1962":14575,"Wells":14576,"stitution":14577,"Announcement":14578,"Oy":14579,"arkable":14580,"SD":14581,"Cobra":14582,"Genesis":14583,"Fits":14584,"crit":14585,"consisting":14586,"Panoramic":14587,"Layer":14588,"chapel":14589,"yours":14590,"glazed":14591,"Funky":14592,"blueberries":14593,"critical":14594,"Poppy":14595,"injured":14596,"cubes":14597,"Byz":14598,"arched":14599,"Magnetic":14600,"Essex":14601,"Pigs":14602,"cruc":14603,"buttercream":14604,"1956":14605,"A4":14606,"Dachshund":14607,"onym":14608,"ectors":14609,"catcher":14610,"blooms":14611,"cushions":14612,"Arg":14613,"accessible":14614,"Winery":14615,"Nouveau":14616,"Ferry":14617,"Ghib":14618,"Bead":14619,"Backdrop":14620,"Grizz":14621,"Bunch":14622,"motivation":14623,"Boku":14624,"leon":14625,"wholesale":14626,"osis":14627,"Skies":14628,"Classes":14629,"Buttons":14630,"Panorama":14631,"Sparkle":14632,"auc":14633,"directions":14634,"Speaker":14635,"happens":14636,"confetti":14637,"Mammals":14638,"Ghibli":14639,"cass":14640,"technical":14641,"scientist":14642,"EU":14643,"pills":14644,"redded":14645,"developing":14646,"stical":14647,"identify":14648,"circus":14649,"infant":14650,"Cranberry":14651,"Domestic":14652,"Dominican":14653,"royer":14654,"ptons":14655,"interactive":14656,"Palms":14657,"Killer":14658,"cabbage":14659,"Lets":14660,"scissors":14661,"Bulgaria":14662,"Animales":14663,"rellis":14664,"Cancun":14665,"caf":14666,"Tribute":14667,"elab":14668,"Hamptons":14669,"NHL":14670,"illery":14671,"ugly":14672,"meditation":14673,"gentle":14674,"scientific":14675,"formances":14676,"Cul":14677,"Softball":14678,"tart":14679,"xiety":14680,"Barrier":14681,"dense":14682,"Ceramics":14683,"Hi":14684,"uku":14685,"detailing":14686,"Millenn":14687,"jumps":14688,"stencil":14689,"ques":14690,"Auburn":14691,"Cass":14692,"Diner":14693,"quant":14694,"decade":14695,"Beth":14696,"atomic":14697,"Airline":14698,"manufacturing":14699,"Scream":14700,"Lehenga":14701,"temples":14702,"Robots":14703,"Bry":14704,"Chang":14705,"'')":14706,"treasure":14707,"4K":14708,"AW":14709,"izens":14710,"jars":14711,"Springfield":14712,"donated":14713,"Regular":14714,"Gentle":14715,"cameras":14716,"Caric":14717,"Plated":14718,"recycling":14719,"uggling":14720,"grazing":14721,"Transition":14722,"Dual":14723,"Shine":14724,"Kinds":14725,"aky":14726,"Haz":14727,"ilogy":14728,"opes":14729,"Speedway":14730,"interested":14731,"garnished":14732,"hydro":14733,"reindeer":14734,"chiffon":14735,"missions":14736,"Instead":14737,"Transit":14738,"Puma":14739,"deco":14740,"510":14741,"Kens":14742,"lamb":14743,"pins":14744,"samples":14745,"crunch":14746,"Fail":14747,"uran":14748,"fielder":14749,"Cypr":14750,"Dj":14751,"angea":14752,"lanterns":14753,"osophy":14754,"grew":14755,"lilac":14756,"pom":14757,"tastes":14758,"semary":14759,"Signage":14760,"clearly":14761,"Bundle":14762,"Combination":14763,"Appliances":14764,"kindergarten":14765,"screws":14766,"pixel":14767,"cartoons":14768,"charcoal":14769,"Trunk":14770,"Cardiff":14771,"Cashmere":14772,"Gaz":14773,"flights":14774,"engaged":14775,"Overview":14776,"Expert":14777,"personalized":14778,"soy":14779,"Salv":14780,"iwi":14781,"Lew":14782,"Rip":14783,"Item":14784,"attach":14785,"ateful":14786,"Quad":14787,"Armour":14788,"devil":14789,"91":14790,"Tomorrow":14791,"Kangaroo":14792,"stretched":14793,"ewater":14794,"Awakens":14795,"boring":14796,"Knock":14797,"Destiny":14798,"peel":14799,"Packing":14800,"Mund":14801,"ova":14802,"blush":14803,"cows":14804,"pottery":14805,"sequence":14806,"Tab":14807,"mechanical":14808,"waterproof":14809,"semif":14810,"Terra":14811,"Aid":14812,"Addition":14813,"Lifted":14814,"knight":14815,"mustard":14816,"Khaki":14817,"NW":14818,"Psal":14819,"revolution":14820,"retired":14821,"distinctive":14822,"CS":14823,"Tanzania":14824,">--":14825,"Pancakes":14826,"elephants":14827,"extensive":14828,"weapons":14829,"ishment":14830,"brellas":14831,"aruto":14832,"collecting":14833,"Chance":14834,"workplace":14835,"stap":14836,"smith":14837,"Airbender":14838,"maxi":14839,"Kel":14840,"utility":14841,"formula":14842,"Skiing":14843,"Serb":14844,"Areas":14845,"preneur":14846,"Daddy":14847,"Carriage":14848,"Eclip":14849,"enamel":14850,"rapid":14851,"Planes":14852,"hedgehog":14853,"although":14854,"culine":14855,"jewel":14856,"Commander":14857,"shep":14858,"centerpiece":14859,"pas":14860,"ikini":14861,"barbecue":14862,
[...]
